{
  "version": "1.0",
  "truncation": null,
  "padding": null,
  "added_tokens": [
    {
      "id": 0,
      "content": "<unk>",
      "single_word": false,
      "lstrip": false,
      "rstrip": false,
      "normalized": false,
      "special": true
    },
    {
      "id": 1,
      "content": "<pad>",
      "single_word": false,
      "lstrip": false,
      "rstrip": false,
      "normalized": false,
      "special": true
    },
    {
      "id": 2,
      "content": "<s>",
      "single_word": false,
      "lstrip": false,
      "rstrip": false,
      "normalized": false,
      "special": true
    },
    {
      "id": 3,
      "content": "</s>",
      "single_word": false,
      "lstrip": false,
      "rstrip": false,
      "normalized": false,
      "special": true
    }
  ],
  "normalizer": null,
  "pre_tokenizer": {
    "type": "Whitespace"
  },
  "post_processor": null,
  "decoder": null,
  "model": {
    "type": "BPE",
    "dropout": null,
    "unk_token": null,
    "continuing_subword_prefix": null,
    "end_of_word_suffix": null,
    "fuse_unk": false,
    "byte_fallback": false,
    "ignore_merges": false,
    "vocab": {
      "<unk>": 0,
      "<pad>": 1,
      "<s>": 2,
      "</s>": 3,
      "!": 4,
      "#": 5,
      "$": 6,
      "%": 7,
      "&": 8,
      "(": 9,
      ")": 10,
      "*": 11,
      "+": 12,
      ",": 13,
      "-": 14,
      ".": 15,
      "/": 16,
      "0": 17,
      "1": 18,
      "2": 19,
      "3": 20,
      "4": 21,
      "5": 22,
      "6": 23,
      "7": 24,
      "8": 25,
      "9": 26,
      ":": 27,
      ";": 28,
      "<": 29,
      "=": 30,
      ">": 31,
      "?": 32,
      "@": 33,
      "a": 34,
      "b": 35,
      "c": 36,
      "d": 37,
      "e": 38,
      "f": 39,
      "g": 40,
      "h": 41,
      "i": 42,
      "j": 43,
      "k": 44,
      "l": 45,
      "m": 46,
      "n": 47,
      "o": 48,
      "p": 49,
      "q": 50,
      "r": 51,
      "s": 52,
      "t": 53,
      "u": 54,
      "v": 55,
      "w": 56,
      "x": 57,
      "y": 58,
      "z": 59,
      "": 60,
      "": 61,
      "¡": 62,
      "£": 63,
      "à": 64,
      "á": 65,
      "â": 66,
      "ã": 67,
      "ä": 68,
      "å": 69,
      "ç": 70,
      "è": 71,
      "é": 72,
      "ê": 73,
      "ë": 74,
      "í": 75,
      "ï": 76,
      "ñ": 77,
      "ó": 78,
      "ö": 79,
      "ø": 80,
      "ü": 81,
      "ā": 82,
      "ă": 83,
      "č": 84,
      "ē": 85,
      "ť": 86,
      "́": 87,
      "ย": 88,
      "ร": 89,
      "อ": 90,
      "่": 91,
      "–": 92,
      "—": 93,
      "…": 94,
      "€": 95,
      "你": 96,
      "葱": 97,
      "送": 98,
      "th": 99,
      "in": 100,
      "the": 101,
      "an": 102,
      "re": 103,
      "</": 104,
      "at": 105,
      "ou": 106,
      "on": 107,
      "er": 108,
      "to": 109,
      "is": 110,
      "and": 111,
      "os": 112,
      "en": 113,
      "al": 114,
      "ing": 115,
      "ap": 116,
      "it": 117,
      "or": 118,
      "es": 119,
      "of": 120,
      "apos": 121,
      "as": 122,
      "ar": 123,
      "ed": 124,
      "le": 125,
      "we": 126,
      "that": 127,
      "you": 128,
      "wh": 129,
      "om": 130,
      "ot": 131,
      "st": 132,
      "se": 133,
      "ic": 134,
      "ve": 135,
      "be": 136,
      "ow": 137,
      "ly": 138,
      "ac": 139,
      "ion": 140,
      "so": 141,
      "ll": 142,
      "ch": 143,
      "qu": 144,
      "ent": 145,
      "me": 146,
      "this": 147,
      "ld": 148,
      "li": 149,
      "ut": 150,
      "he": 151,
      "ver": 152,
      "ha": 153,
      "ay": 154,
      "id": 155,
      "for": 156,
      "ab": 157,
      "wi": 158,
      "ge": 159,
      "ke": 160,
      "are": 161,
      "out": 162,
      "op": 163,
      "gh": 164,
      "quot": 165,
      "all": 166,
      "they": 167,
      "ne": 168,
      "tr": 169,
      "was": 170,
      "ir": 171,
      "go": 172,
      "do": 173,
      "de": 174,
      "pr": 175,
      "un": 176,
      "pe": 177,
      "im": 178,
      "if": 179,
      "ome": 180,
      "lo": 181,
      "us": 182,
      "ce": 183,
      "one": 184,
      "with": 185,
      "am": 186,
      "ally": 187,
      "now": 188,
      "fe": 189,
      "what": 190,
      "but": 191,
      "have": 192,
      "can": 193,
      "ter": 194,
      "our": 195,
      "wor": 196,
      "ad": 197,
      "mo": 198,
      "fr": 199,
      "ation": 200,
      "con": 201,
      "ur": 202,
      "te": 203,
      "ct": 204,
      "--": 205,
      "thing": 206,
      "ght": 207,
      "ther": 208,
      "ul": 209,
      "ould": 210,
      "very": 211,
      "ant": 212,
      "there": 213,
      "about": 214,
      "act": 215,
      "my": 216,
      "not": 217,
      "od": 218,
      "com": 219,
      "ma": 220,
      "ex": 221,
      "ol": 222,
      "art": 223,
      "ca": 224,
      "some": 225,
      "ust": 226,
      "per": 227,
      "oun": 228,
      "use": 229,
      "il": 230,
      "pl": 231,
      "sh": 232,
      "ri": 233,
      "ok": 234,
      "ind": 235,
      "ess": 236,
      "peop": 237,
      "people": 238,
      "like": 239,
      "ain": 240,
      "ate": 241,
      "ig": 242,
      "up": 243,
      "ure": 244,
      "from": 245,
      "ye": 246,
      "um": 247,
      "pro": 248,
      "ity": 249,
      "no": 250,
      "sa": 251,
      "ive": 252,
      "gr": 253,
      "est": 254,
      "way": 255,
      "just": 256,
      "ag": 257,
      "these": 258,
      "beca": 259,
      "when": 260,
      "ink": 261,
      "ci": 262,
      "know": 263,
      "res": 264,
      "any": 265,
      "get": 266,
      "them": 267,
      "ide": 268,
      "how": 269,
      "ill": 270,
      "because": 271,
      "see": 272,
      "by": 273,
      "ers": 274,
      "who": 275,
      "ti": 276,
      "think": 277,
      "ist": 278,
      "ound": 279,
      "br": 280,
      "more": 281,
      "other": 282,
      "ren": 283,
      "year": 284,
      "your": 285,
      "ich": 286,
      "ies": 287,
      "end": 288,
      "work": 289,
      "whe": 290,
      "going": 291,
      "ment": 292,
      "had": 293,
      "ine": 294,
      "red": 295,
      "su": 296,
      "would": 297,
      "fo": 298,
      "here": 299,
      "ack": 300,
      "ort": 301,
      "their": 302,
      "look": 303,
      "em": 304,
      "which": 305,
      "ost": 306,
      "ans": 307,
      "than": 308,
      "co": 309,
      "ta": 310,
      "were": 311,
      "ose": 312,
      "really": 313,
      "want": 314,
      "day": 315,
      "ually": 316,
      "iv": 317,
      "world": 318,
      "ble": 319,
      "age": 320,
      "ous": 321,
      "then": 322,
      "00": 323,
      "ev": 324,
      "tor": 325,
      "ple": 326,
      "ast": 327,
      "sp": 328,
      "ard": 329,
      "where": 330,
      "every": 331,
      "der": 332,
      "own": 333,
      "ach": 334,
      "time": 335,
      "app": 336,
      "don": 337,
      "reat": 338,
      "iz": 339,
      "has": 340,
      "ace": 341,
      "ro": 342,
      "ough": 343,
      "new": 344,
      "able": 345,
      "actually": 346,
      "say": 347,
      "ions": 348,
      "king": 349,
      "et": 350,
      "will": 351,
      "cl": 352,
      "could": 353,
      "ong": 354,
      "cent": 355,
      "bo": 356,
      "into": 357,
      "she": 358,
      "tw": 359,
      "el": 360,
      "did": 361,
      "ence": 362,
      "ph": 363,
      "years": 364,
      "ight": 365,
      "well": 366,
      "things": 367,
      "tal": 368,
      "ild": 369,
      "cr": 370,
      "itt": 371,
      "right": 372,
      "bu": 373,
      "sel": 374,
      "over": 375,
      "dif": 376,
      "his": 377,
      "happ": 378,
      "ical": 379,
      "make": 380,
      "ice": 381,
      "dis": 382,
      "ie": 383,
      "most": 384,
      "need": 385,
      "ite": 386,
      "chan": 387,
      "part": 388,
      "put": 389,
      "fir": 390,
      "ass": 391,
      "po": 392,
      "been": 393,
      "feren": 394,
      "form": 395,
      "come": 396,
      "mu": 397,
      "af": 398,
      "two": 399,
      "start": 400,
      "ree": 401,
      "ud": 402,
      "try": 403,
      "back": 404,
      "said": 405,
      "log": 406,
      "first": 407,
      "str": 408,
      "bl": 409,
      "port": 410,
      "something": 411,
      "life": 412,
      "those": 413,
      "call": 414,
      "ves": 415,
      "gu": 416,
      "sy": 417,
      "much": 418,
      "ia": 419,
      "differen": 420,
      "got": 421,
      "ts": 422,
      "ber": 423,
      "ens": 424,
      "ign": 425,
      "also": 426,
      "her": 427,
      "des": 428,
      "bod": 429,
      "ty": 430,
      "ater": 431,
      "thr": 432,
      "kind": 433,
      "lot": 434,
      "spe": 435,
      "bet": 436,
      "let": 437,
      "even": 438,
      "ving": 439,
      "ittle": 440,
      "little": 441,
      "pre": 442,
      "vel": 443,
      "many": 444,
      "only": 445,
      "ep": 446,
      "pos": 447,
      "cho": 448,
      "gen": 449,
      "ful": 450,
      "cre": 451,
      "si": 452,
      "under": 453,
      "coun": 454,
      "ob": 455,
      "take": 456,
      "ated": 457,
      "tell": 458,
      "body": 459,
      "ting": 460,
      "uc": 461,
      "man": 462,
      "rest": 463,
      "why": 464,
      "dr": 465,
      "lear": 466,
      "good": 467,
      "ip": 468,
      "hum": 469,
      "inter": 470,
      "self": 471,
      "its": 472,
      "real": 473,
      "ish": 474,
      "car": 475,
      "ks": 476,
      "ect": 477,
      "show": 478,
      "does": 479,
      "mar": 480,
      "through": 481,
      "different": 482,
      "pres": 483,
      "stand": 484,
      "int": 485,
      "comm": 486,
      "read": 487,
      "ial": 488,
      "around": 489,
      "may": 490,
      "down": 491,
      "son": 492,
      "off": 493,
      "cess": 494,
      "tory": 495,
      "tur": 496,
      "uct": 497,
      "being": 498,
      "ase": 499,
      "ms": 500,
      "ict": 501,
      "old": 502,
      "ning": 503,
      "aw": 504,
      "ue": 505,
      "wr": 506,
      "ought": 507,
      "ire": 508,
      "side": 509,
      "vi": 510,
      "ations": 511,
      "fa": 512,
      "talk": 513,
      "ents": 514,
      "big": 515,
      "proble": 516,
      "fore": 517,
      "ance": 518,
      "stem": 519,
      "fl": 520,
      "happen": 521,
      "same": 522,
      "ick": 523,
      "sur": 524,
      "ual": 525,
      "tim": 526,
      "three": 527,
      "soci": 528,
      "great": 529,
      "pt": 530,
      "hi": 531,
      "col": 532,
      "sci": 533,
      "comp": 534,
      "ject": 535,
      "sto": 536,
      "med": 537,
      "eng": 538,
      "child": 539,
      "ary": 540,
      "tech": 541,
      "ower": 542,
      "find": 543,
      "human": 544,
      "doing": 545,
      "quest": 546,
      "ak": 547,
      "fact": 548,
      "less": 549,
      "ways": 550,
      "cond": 551,
      "xt": 552,
      "ces": 553,
      "exper": 554,
      "fin": 555,
      "cour": 556,
      "ef": 557,
      "ys": 558,
      "sol": 559,
      "after": 560,
      "percent": 561,
      "sim": 562,
      "mon": 563,
      "min": 564,
      "wom": 565,
      "ically": 566,
      "long": 567,
      "stud": 568,
      "ved": 569,
      "cor": 570,
      "brain": 571,
      "build": 572,
      "called": 573,
      "again": 574,
      "system": 575,
      "thank": 576,
      "cer": 577,
      "inv": 578,
      "ask": 579,
      "light": 580,
      "ics": 581,
      "sm": 582,
      "today": 583,
      "inte": 584,
      "made": 585,
      "ile": 586,
      "bit": 587,
      "should": 588,
      "ating": 589,
      "vers": 590,
      "ult": 591,
      "creat": 592,
      "ser": 593,
      "logy": 594,
      "ger": 595,
      "hel": 596,
      "illion": 597,
      "change": 598,
      "arch": 599,
      "bas": 600,
      "ear": 601,
      "ates": 602,
      "import": 603,
      "cal": 604,
      "person": 605,
      "fect": 606,
      "ition": 607,
      "turn": 608,
      "ever": 609,
      "play": 610,
      "used": 611,
      "az": 612,
      "last": 613,
      "inst": 614,
      "ted": 615,
      "imag": 616,
      "ities": 617,
      "feel": 618,
      "didn": 619,
      "power": 620,
      "fun": 621,
      "thought": 622,
      "ars": 623,
      "mean": 624,
      "important": 625,
      "ath": 626,
      "ize": 627,
      "ds": 628,
      "pu": 629,
      "trans": 630,
      "prod": 631,
      "ck": 632,
      "idea": 633,
      "amer": 634,
      "bi": 635,
      "times": 636,
      "ise": 637,
      "beli": 638,
      "high": 639,
      "before": 640,
      "started": 641,
      "design": 642,
      "scho": 643,
      "exam": 644,
      "understand": 645,
      "ope": 646,
      "help": 647,
      "school": 648,
      "techno": 649,
      "dec": 650,
      "found": 651,
      "ra": 652,
      "give": 653,
      "bab": 654,
      "na": 655,
      "went": 656,
      "gan": 657,
      "hand": 658,
      "les": 659,
      "kes": 660,
      "story": 661,
      "interest": 662,
      "him": 663,
      "cur": 664,
      "plan": 665,
      "might": 666,
      "another": 667,
      "never": 668,
      "tain": 669,
      "mat": 670,
      "air": 671,
      "kid": 672,
      "place": 673,
      "pol": 674,
      "mem": 675,
      "ven": 676,
      "fam": 677,
      "problem": 678,
      "sing": 679,
      "course": 680,
      "alth": 681,
      "cell": 682,
      "&#": 683,
      "better": 684,
      "ily": 685,
      "vir": 686,
      "still": 687,
      "tra": 688,
      "000": 689,
      "each": 690,
      "ular": 691,
      "lect": 692,
      "vis": 693,
      "als": 694,
      "contr": 695,
      "par": 696,
      "next": 697,
      "ists": 698,
      "10": 699,
      "came": 700,
      "learn": 701,
      "ility": 702,
      "land": 703,
      "pat": 704,
      "love": 705,
      "commun": 706,
      "toge": 707,
      "together": 708,
      "few": 709,
      "ga": 710,
      "ago": 711,
      "net": 712,
      "ian": 713,
      "20": 714,
      "uni": 715,
      "ry": 716,
      "book": 717,
      "care": 718,
      "oss": 719,
      "amp": 720,
      "velop": 721,
      "sha": 722,
      "ween": 723,
      "cy": 724,
      "develop": 725,
      "cap": 726,
      "ons": 727,
      "num": 728,
      "dat": 729,
      "au": 730,
      "four": 731,
      "ness": 732,
      "nat": 733,
      "comple": 734,
      "mus": 735,
      "won": 736,
      "women": 737,
      "too": 738,
      "ins": 739,
      "between": 740,
      "ience": 741,
      "ied": 742,
      "water": 743,
      "gy": 744,
      "question": 745,
      "ense": 746,
      "ors": 747,
      "mom": 748,
      "att": 749,
      "eve": 750,
      "second": 751,
      "19": 752,
      "sort": 753,
      "jo": 754,
      "ited": 755,
      "live": 756,
      "ica": 757,
      "grow": 758,
      "gener": 759,
      "ution": 760,
      "data": 761,
      "mind": 762,
      "ward": 763,
      "room": 764,
      "av": 765,
      "possi": 766,
      "iness": 767,
      "point": 768,
      "bal": 769,
      "rel": 770,
      "comes": 771,
      "face": 772,
      "ures": 773,
      "aph": 774,
      "ines": 775,
      "gre": 776,
      "formation": 777,
      "maybe": 778,
      "mal": 779,
      "ized": 780,
      "using": 781,
      "oney": 782,
      "ters": 783,
      "ele": 784,
      "example": 785,
      "ship": 786,
      "children": 787,
      "ff": 788,
      "chang": 789,
      "home": 790,
      "nor": 791,
      "led": 792,
      "econ": 793,
      "aut": 794,
      "small": 795,
      "technology": 796,
      "econom": 797,
      "ner": 798,
      "bus": 799,
      "looking": 800,
      "done": 801,
      "head": 802,
      "move": 803,
      "giv": 804,
      "doesn": 805,
      "ho": 806,
      "war": 807,
      "bot": 808,
      "yes": 809,
      "cont": 810,
      "men": 811,
      "comput": 812,
      "ious": 813,
      "wanted": 814,
      "selves": 815,
      "ific": 816,
      "far": 817,
      "vie": 818,
      "search": 819,
      "bre": 820,
      "working": 821,
      "believe": 822,
      "wal": 823,
      "always": 824,
      "fri": 825,
      "money": 826,
      "reas": 827,
      "friend": 828,
      "ings": 829,
      "teach": 830,
      "ten": 831,
      "ug": 832,
      "project": 833,
      "atch": 834,
      "health": 835,
      "partic": 836,
      "press": 837,
      "lar": 838,
      "line": 839,
      "lim": 840,
      "away": 841,
      "aren": 842,
      "five": 843,
      "whole": 844,
      "food": 845,
      "bor": 846,
      "hard": 847,
      "val": 848,
      "information": 849,
      "set": 850,
      "top": 851,
      "run": 852,
      "country": 853,
      "kids": 854,
      "organ": 855,
      "mis": 856,
      "afr": 857,
      "create": 858,
      "publ": 859,
      "open": 860,
      "pect": 861,
      "sup": 862,
      "ational": 863,
      "trying": 864,
      "graph": 865,
      "everything": 866,
      "sk": 867,
      "lead": 868,
      "ft": 869,
      "ress": 870,
      "del": 871,
      "und": 872,
      "space": 873,
      "mor": 874,
      "million": 875,
      "eas": 876,
      "pict": 877,
      "ory": 878,
      "ote": 879,
      "hal": 880,
      "nect": 881,
      "ments": 882,
      "doll": 883,
      "oup": 884,
      "low": 885,
      "vide": 886,
      "means": 887,
      "aces": 888,
      "sub": 889,
      "ener": 890,
      "making": 891,
      "pret": 892,
      "50": 893,
      "ban": 894,
      "pass": 895,
      "anim": 896,
      "ute": 897,
      "ones": 898,
      "cul": 899,
      "cept": 900,
      "connect": 901,
      "lan": 902,
      "ident": 903,
      "process": 904,
      "social": 905,
      "ative": 906,
      "fut": 907,
      "glo": 908,
      "coming": 909,
      "become": 910,
      "thinking": 911,
      "gest": 912,
      "exp": 913,
      "number": 914,
      "pop": 915,
      "took": 916,
      "fic": 917,
      "char": 918,
      "oper": 919,
      "best": 920,
      "di": 921,
      "quite": 922,
      "future": 923,
      "wa": 924,
      "inc": 925,
      "llow": 926,
      "add": 927,
      "ism": 928,
      "reg": 929,
      "ital": 930,
      "struct": 931,
      "says": 932,
      "tries": 933,
      "probab": 934,
      "product": 935,
      "group": 936,
      "view": 937,
      "dri": 938,
      "acr": 939,
      "enough": 940,
      "lives": 941,
      "left": 942,
      "getting": 943,
      "pon": 944,
      "energy": 945,
      "city": 946,
      "ah": 947,
      "den": 948,
      "gover": 949,
      "while": 950,
      "science": 951,
      "cus": 952,
      "month": 953,
      "ris": 954,
      "beg": 955,
      "tern": 956,
      "ready": 957,
      "la": 958,
      "half": 959,
      "ouse": 960,
      "allow": 961,
      "vo": 962,
      "cons": 963,
      "without": 964,
      "research": 965,
      "pho": 966,
      "possible": 967,
      "mic": 968,
      "okay": 969,
      "keep": 970,
      "iting": 971,
      "govern": 972,
      "pie": 973,
      "probably": 974,
      "speci": 975,
      "business": 976,
      "sound": 977,
      "fu": 978,
      "ices": 979,
      "ible": 980,
      "ries": 981,
      "answ": 982,
      "sense": 983,
      "moment": 984,
      "case": 985,
      "prof": 986,
      "list": 987,
      "200": 988,
      "job": 989,
      "interesting": 990,
      "educ": 991,
      "ican": 992,
      "cle": 993,
      "ctr": 994,
      "music": 995,
      "makes": 996,
      "happened": 997,
      "tre": 998,
      "gram": 999,
      "countries": 1000,
      "ctor": 1001,
      "talking": 1002,
      "beaut": 1003,
      "imagine": 1004,
      "issu": 1005,
      "pretty": 1006,
      "envir": 1007,
      "environ": 1008,
      "photo": 1009,
      "wee": 1010,
      "mother": 1011,
      "dollars": 1012,
      "irl": 1013,
      "hour": 1014,
      "che": 1015,
      "yet": 1016,
      "told": 1017,
      "youn": 1018,
      "reason": 1019,
      "ina": 1020,
      "leg": 1021,
      "stop": 1022,
      "uff": 1023,
      "ying": 1024,
      "earth": 1025,
      "ability": 1026,
      "experience": 1027,
      "stre": 1028,
      "such": 1029,
      "respon": 1030,
      "ket": 1031,
      "polit": 1032,
      "simple": 1033,
      "cells": 1034,
      "global": 1035,
      "langu": 1036,
      "else": 1037,
      "building": 1038,
      "works": 1039,
      "scient": 1040,
      "across": 1041,
      "verse": 1042,
      "unt": 1043,
      "saw": 1044,
      "fort": 1045,
      "girl": 1046,
      "sign": 1047,
      "once": 1048,
      "living": 1049,
      "words": 1050,
      "ided": 1051,
      "watch": 1052,
      "ately": 1053,
      "inside": 1054,
      "stuff": 1055,
      "30": 1056,
      "93": 1057,
      "cri": 1058,
      "hope": 1059,
      "public": 1060,
      "phys": 1061,
      "ction": 1062,
      "member": 1063,
      "mid": 1064,
      "asked": 1065,
      "model": 1066,
      "certain": 1067,
      "91": 1068,
      "bring": 1069,
      "suc": 1070,
      "fig": 1071,
      "mach": 1072,
      "oh": 1073,
      "ird": 1074,
      "family": 1075,
      "hu": 1076,
      "six": 1077,
      "lt": 1078,
      "anything": 1079,
      "present": 1080,
      "ced": 1081,
      "ince": 1082,
      "ety": 1083,
      "fac": 1084,
      "later": 1085,
      "bad": 1086,
      "heart": 1087,
      "aps": 1088,
      "uring": 1089,
      "ili": 1090,
      "amaz": 1091,
      "lea": 1092,
      "sit": 1093,
      "ural": 1094,
      "tem": 1095,
      "pain": 1096,
      "goes": 1097,
      "environment": 1098,
      "expl": 1099,
      "happens": 1100,
      "ention": 1101,
      "having": 1102,
      "vol": 1103,
      "level": 1104,
      "wrong": 1105,
      "days": 1106,
      "ality": 1107,
      "iter": 1108,
      "pris": 1109,
      "gl": 1110,
      "hy": 1111,
      "seen": 1112,
      "house": 1113,
      "particular": 1114,
      "din": 1115,
      "young": 1116,
      "inste": 1117,
      "single": 1118,
      "within": 1119,
      "someone": 1120,
      "wonder": 1121,
      "equ": 1122,
      "gn": 1123,
      "complete": 1124,
      "blo": 1125,
      "problems": 1126,
      "states": 1127,
      "state": 1128,
      "thous": 1129,
      "class": 1130,
      "effect": 1131,
      "night": 1132,
      "electr": 1133,
      "cou": 1134,
      "har": 1135,
      "whether": 1136,
      "thousand": 1137,
      "sure": 1138,
      "nothing": 1139,
      "control": 1140,
      "computer": 1141,
      "ivid": 1142,
      "ang": 1143,
      "oc": 1144,
      "ants": 1145,
      "tom": 1146,
      "fron": 1147,
      "ient": 1148,
      "ash": 1149,
      "begin": 1150,
      "billion": 1151,
      "often": 1152,
      "imp": 1153,
      "fil": 1154,
      "fre": 1155,
      "paren": 1156,
      "hear": 1157,
      "answer": 1158,
      "neur": 1159,
      "myself": 1160,
      "lab": 1161,
      "looked": 1162,
      "everybody": 1163,
      "picture": 1164,
      "ilt": 1165,
      "basically": 1166,
      "test": 1167,
      "planet": 1168,
      "acy": 1169,
      "saying": 1170,
      "mater": 1171,
      "uce": 1172,
      "ken": 1173,
      "kill": 1174,
      "word": 1175,
      "ages": 1176,
      "met": 1177,
      "both": 1178,
      "remember": 1179,
      "ideas": 1180,
      "aid": 1181,
      "serv": 1182,
      "dan": 1183,
      "walk": 1184,
      "aud": 1185,
      "demo": 1186,
      "ange": 1187,
      "video": 1188,
      "language": 1189,
      "almost": 1190,
      "uck": 1191,
      "true": 1192,
      "bed": 1193,
      "ib": 1194,
      "bur": 1195,
      "treat": 1196,
      "itive": 1197,
      "order": 1198,
      "cost": 1199,
      "community": 1200,
      "ply": 1201,
      "iful": 1202,
      "exact": 1203,
      "ulation": 1204,
      "law": 1205,
      "ped": 1206,
      "material": 1207,
      "ously": 1208,
      "hold": 1209,
      "gets": 1210,
      "matter": 1211,
      "dle": 1212,
      "dep": 1213,
      "unch": 1214,
      "free": 1215,
      "africa": 1216,
      "individ": 1217,
      "aper": 1218,
      "amazing": 1219,
      "disco": 1220,
      "ground": 1221,
      "spend": 1222,
      "incred": 1223,
      "history": 1224,
      "sw": 1225,
      "heard": 1226,
      "built": 1227,
      "beautiful": 1228,
      "dire": 1229,
      "entire": 1230,
      "chall": 1231,
      "ering": 1232,
      "plic": 1233,
      "bar": 1234,
      "pay": 1235,
      "utes": 1236,
      "sometimes": 1237,
      "national": 1238,
      "individual": 1239,
      "dev": 1240,
      "contin": 1241,
      "already": 1242,
      "others": 1243,
      "engine": 1244,
      "olog": 1245,
      "looks": 1246,
      "guy": 1247,
      "government": 1248,
      "hund": 1249,
      "united": 1250,
      "hundred": 1251,
      "decided": 1252,
      "until": 1253,
      "stories": 1254,
      "instead": 1255,
      "middle": 1256,
      "mil": 1257,
      "train": 1258,
      "robot": 1259,
      "piece": 1260,
      "success": 1261,
      "nam": 1262,
      "ury": 1263,
      "action": 1264,
      "emp": 1265,
      "experim": 1266,
      "program": 1267,
      "education": 1268,
      "mag": 1269,
      "taking": 1270,
      "figure": 1271,
      "tool": 1272,
      "tru": 1273,
      "share": 1274,
      "large": 1275,
      "since": 1276,
      "clear": 1277,
      "ste": 1278,
      "father": 1279,
      "sex": 1280,
      "prot": 1281,
      "follow": 1282,
      "evol": 1283,
      "society": 1284,
      "100": 1285,
      "step": 1286,
      "months": 1287,
      "wasn": 1288,
      "woman": 1289,
      "couple": 1290,
      "osp": 1291,
      "everyone": 1292,
      "cut": 1293,
      "dam": 1294,
      "ben": 1295,
      "friends": 1296,
      "cult": 1297,
      "inno": 1298,
      "collect": 1299,
      "nature": 1300,
      "aster": 1301,
      "huge": 1302,
      "though": 1303,
      "minutes": 1304,
      "ield": 1305,
      "key": 1306,
      "internet": 1307,
      "io": 1308,
      "sun": 1309,
      "somebody": 1310,
      "mer": 1311,
      "must": 1312,
      "became": 1313,
      "universe": 1314,
      "isn": 1315,
      "front": 1316,
      "ton": 1317,
      "incre": 1318,
      "beha": 1319,
      "cancer": 1320,
      "sou": 1321,
      "green": 1322,
      "exactly": 1323,
      "fer": 1324,
      "ivity": 1325,
      "bers": 1326,
      "ark": 1327,
      "que": 1328,
      "name": 1329,
      "por": 1330,
      "learned": 1331,
      "meet": 1332,
      "past": 1333,
      "quick": 1334,
      "team": 1335,
      "ush": 1336,
      "themselves": 1337,
      "created": 1338,
      "ues": 1339,
      "ization": 1340,
      "mill": 1341,
      "cord": 1342,
      "complex": 1343,
      "behavi": 1344,
      "listen": 1345,
      "china": 1346,
      "indust": 1347,
      "completely": 1348,
      "bs": 1349,
      "sho": 1350,
      "rad": 1351,
      "adv": 1352,
      "places": 1353,
      "study": 1354,
      "univers": 1355,
      "pot": 1356,
      "god": 1357,
      "game": 1358,
      "ix": 1359,
      "news": 1360,
      "street": 1361,
      "appe": 1362,
      "happening": 1363,
      "questions": 1364,
      "third": 1365,
      "exc": 1366,
      "close": 1367,
      "hours": 1368,
      "wind": 1369,
      "fly": 1370,
      "knew": 1371,
      "og": 1372,
      "grand": 1373,
      "against": 1374,
      "ator": 1375,
      "happy": 1376,
      "fully": 1377,
      "cu": 1378,
      "ional": 1379,
      "prop": 1380,
      "mess": 1381,
      "mass": 1382,
      "speak": 1383,
      "democr": 1384,
      "rather": 1385,
      "coll": 1386,
      "kinds": 1387,
      "american": 1388,
      "itself": 1389,
      "acc": 1390,
      "shows": 1391,
      "students": 1392,
      "ming": 1393,
      "yeah": 1394,
      "ease": 1395,
      "ourselves": 1396,
      "opport": 1397,
      "turns": 1398,
      "bon": 1399,
      "tri": 1400,
      "shap": 1401,
      "company": 1402,
      "opportun": 1403,
      "ail": 1404,
      "difference": 1405,
      "innov": 1406,
      "itting": 1407,
      "ien": 1408,
      "worked": 1409,
      "oil": 1410,
      "bir": 1411,
      "cogn": 1412,
      "black": 1413,
      "seven": 1414,
      "expect": 1415,
      "jour": 1416,
      "text": 1417,
      "typ": 1418,
      "vision": 1419,
      "explain": 1420,
      "dig": 1421,
      "object": 1422,
      "15": 1423,
      "drug": 1424,
      "meas": 1425,
      "thousands": 1426,
      "gave": 1427,
      "fall": 1428,
      "uses": 1429,
      "mark": 1430,
      "ples": 1431,
      "phone": 1432,
      "fail": 1433,
      "compan": 1434,
      "diffic": 1435,
      "clim": 1436,
      "eat": 1437,
      "miss": 1438,
      "dre": 1439,
      "scal": 1440,
      "deep": 1441,
      "full": 1442,
      "hind": 1443,
      "death": 1444,
      "istic": 1445,
      "couldn": 1446,
      "disease": 1447,
      "learning": 1448,
      "jor": 1449,
      "finally": 1450,
      "cir": 1451,
      "eur": 1452,
      "india": 1453,
      "relation": 1454,
      "depend": 1455,
      "liter": 1456,
      "acter": 1457,
      "impro": 1458,
      "based": 1459,
      "during": 1460,
      "ier": 1461,
      "deal": 1462,
      "flu": 1463,
      "changed": 1464,
      "dom": 1465,
      "field": 1466,
      "hor": 1467,
      "sug": 1468,
      "along": 1469,
      "amoun": 1470,
      "issue": 1471,
      "america": 1472,
      "haps": 1473,
      "ared": 1474,
      "perhaps": 1475,
      "colle": 1476,
      "machine": 1477,
      "pred": 1478,
      "viol": 1479,
      "natural": 1480,
      "pur": 1481,
      "row": 1482,
      "outside": 1483,
      "main": 1484,
      "century": 1485,
      "early": 1486,
      "decis": 1487,
      "sens": 1488,
      "turned": 1489,
      "population": 1490,
      "igh": 1491,
      "ential": 1492,
      "behavior": 1493,
      "emot": 1494,
      "powerful": 1495,
      "ork": 1496,
      "ball": 1497,
      "rich": 1498,
      "given": 1499,
      "takes": 1500,
      "tors": 1501,
      "psy": 1502,
      "atic": 1503,
      "40": 1504,
      "lots": 1505,
      "systems": 1506,
      "species": 1507,
      "sc": 1508,
      "var": 1509,
      "short": 1510,
      "tail": 1511,
      "invest": 1512,
      "appro": 1513,
      "dist": 1514,
      "draw": 1515,
      "culture": 1516,
      "lish": 1517,
      "reli": 1518,
      "ider": 1519,
      "super": 1520,
      "recent": 1521,
      "guys": 1522,
      "obvi": 1523,
      "protect": 1524,
      "aged": 1525,
      "box": 1526,
      "aring": 1527,
      "audience": 1528,
      "ith": 1529,
      "least": 1530,
      "yourself": 1531,
      "ling": 1532,
      "intr": 1533,
      "stage": 1534,
      "economic": 1535,
      "plant": 1536,
      "knowled": 1537,
      "image": 1538,
      "known": 1539,
      "paper": 1540,
      "ases": 1541,
      "chem": 1542,
      "easy": 1543,
      "animals": 1544,
      "win": 1545,
      "behind": 1546,
      "week": 1547,
      "ats": 1548,
      "personal": 1549,
      "cop": 1550,
      "mole": 1551,
      "perform": 1552,
      "dream": 1553,
      "vered": 1554,
      "companies": 1555,
      "12": 1556,
      "york": 1557,
      "defin": 1558,
      "realized": 1559,
      "stay": 1560,
      "ither": 1561,
      "non": 1562,
      "ames": 1563,
      "incl": 1564,
      "simply": 1565,
      "parents": 1566,
      "local": 1567,
      "wards": 1568,
      "sle": 1569,
      "media": 1570,
      "18": 1571,
      "ives": 1572,
      "difficult": 1573,
      "needed": 1574,
      "trad": 1575,
      "pract": 1576,
      "experiment": 1577,
      "bri": 1578,
      "eight": 1579,
      "size": 1580,
      "tin": 1581,
      "exist": 1582,
      "augh": 1583,
      "sour": 1584,
      "verage": 1585,
      "astic": 1586,
      "needs": 1587,
      "sent": 1588,
      "ping": 1589,
      "tend": 1590,
      "moving": 1591,
      "communic": 1592,
      "leave": 1593,
      "relationship": 1594,
      "gress": 1595,
      "major": 1596,
      "doctor": 1597,
      "felt": 1598,
      "eyes": 1599,
      "famili": 1600,
      "ians": 1601,
      "rent": 1602,
      "ordin": 1603,
      "invol": 1604,
      "hands": 1605,
      "support": 1606,
      "fight": 1607,
      "pen": 1608,
      "wo": 1609,
      "perfect": 1610,
      "board": 1611,
      "strong": 1612,
      "europe": 1613,
      "ral": 1614,
      "send": 1615,
      "access": 1616,
      "political": 1617,
      "qui": 1618,
      "extre": 1619,
      "ument": 1620,
      "foot": 1621,
      "fast": 1622,
      "area": 1623,
      "ties": 1624,
      "pattern": 1625,
      "ni": 1626,
      "sil": 1627,
      "lling": 1628,
      "absol": 1629,
      "taken": 1630,
      "parts": 1631,
      "knowledge": 1632,
      "ade": 1633,
      "extra": 1634,
      "value": 1635,
      "photograph": 1636,
      "oce": 1637,
      "oud": 1638,
      "ney": 1639,
      "spir": 1640,
      "type": 1641,
      "ination": 1642,
      "reach": 1643,
      "seeing": 1644,
      "absolute": 1645,
      "event": 1646,
      "ny": 1647,
      "ots": 1648,
      "resour": 1649,
      "ished": 1650,
      "break": 1651,
      "beginning": 1652,
      "ially": 1653,
      "ps": 1654,
      "rate": 1655,
      "squ": 1656,
      "cial": 1657,
      "blue": 1658,
      "voice": 1659,
      "une": 1660,
      "force": 1661,
      "spent": 1662,
      "common": 1663,
      "film": 1664,
      "utions": 1665,
      "cannot": 1666,
      "ax": 1667,
      "safe": 1668,
      "grad": 1669,
      "growth": 1670,
      "camp": 1671,
      "fur": 1672,
      "idence": 1673,
      "moder": 1674,
      "books": 1675,
      "market": 1676,
      "longer": 1677,
      "cities": 1678,
      "ults": 1679,
      "hood": 1680,
      "sum": 1681,
      "ank": 1682,
      "wonderful": 1683,
      "ients": 1684,
      "born": 1685,
      "scale": 1686,
      "tic": 1687,
      "itions": 1688,
      "whatever": 1689,
      "surv": 1690,
      "bill": 1691,
      "ances": 1692,
      "ford": 1693,
      "fear": 1694,
      "amount": 1695,
      "wall": 1696,
      "began": 1697,
      "conv": 1698,
      "quickly": 1699,
      "sl": 1700,
      "revol": 1701,
      "descri": 1702,
      "buy": 1703,
      "fire": 1704,
      "anal": 1705,
      "sud": 1706,
      "cool": 1707,
      "spec": 1708,
      "medi": 1709,
      "profess": 1710,
      "ging": 1711,
      "ended": 1712,
      "center": 1713,
      "giving": 1714,
      "special": 1715,
      "sudden": 1716,
      "lost": 1717,
      "ru": 1718,
      "morning": 1719,
      "60": 1720,
      "dead": 1721,
      "feed": 1722,
      "terms": 1723,
      "eye": 1724,
      "flo": 1725,
      "ox": 1726,
      "ature": 1727,
      "near": 1728,
      "prom": 1729,
      "pet": 1730,
      "write": 1731,
      "posed": 1732,
      "travel": 1733,
      "mit": 1734,
      "poor": 1735,
      "die": 1736,
      "fine": 1737,
      "tro": 1738,
      "road": 1739,
      "clos": 1740,
      "surpris": 1741,
      "sat": 1742,
      "itect": 1743,
      "architect": 1744,
      "wouldn": 1745,
      "impact": 1746,
      "orig": 1747,
      "risk": 1748,
      "worth": 1749,
      "technolog": 1750,
      "sleep": 1751,
      "da": 1752,
      "hon": 1753,
      "scre": 1754,
      "tow": 1755,
      "possib": 1756,
      "explo": 1757,
      "rele": 1758,
      "forward": 1759,
      "images": 1760,
      "ged": 1761,
      "tried": 1762,
      "modern": 1763,
      "hosp": 1764,
      "ides": 1765,
      "prin": 1766,
      "either": 1767,
      "pick": 1768,
      "priv": 1769,
      "peace": 1770,
      "ught": 1771,
      "south": 1772,
      "gs": 1773,
      "sust": 1774,
      "itch": 1775,
      "stat": 1776,
      "solution": 1777,
      "fish": 1778,
      "ilar": 1779,
      "growing": 1780,
      "ude": 1781,
      "vor": 1782,
      "comb": 1783,
      "ively": 1784,
      "spread": 1785,
      "meaning": 1786,
      "opportunity": 1787,
      "sustain": 1788,
      "ned": 1789,
      "vent": 1790,
      "ane": 1791,
      "recogn": 1792,
      "male": 1793,
      "average": 1794,
      "white": 1795,
      "produc": 1796,
      "attention": 1797,
      "situ": 1798,
      "bro": 1799,
      "measure": 1800,
      "ology": 1801,
      "sitting": 1802,
      "reality": 1803,
      "structure": 1804,
      "approach": 1805,
      "camer": 1806,
      "astr": 1807,
      "lands": 1808,
      "changes": 1809,
      "interact": 1810,
      "weeks": 1811,
      "extreme": 1812,
      "hot": 1813,
      "post": 1814,
      "sequ": 1815,
      "sym": 1816,
      "80": 1817,
      "gone": 1818,
      "telling": 1819,
      "ler": 1820,
      "inde": 1821,
      "enge": 1822,
      "feeling": 1823,
      "blood": 1824,
      "english": 1825,
      "solve": 1826,
      "baby": 1827,
      "sof": 1828,
      "economy": 1829,
      "animal": 1830,
      "dna": 1831,
      "iss": 1832,
      "brought": 1833,
      "drop": 1834,
      "rup": 1835,
      "anyone": 1836,
      "instit": 1837,
      "ined": 1838,
      "developed": 1839,
      "scientists": 1840,
      "physical": 1841,
      "gor": 1842,
      "ze": 1843,
      "crit": 1844,
      "interested": 1845,
      "climate": 1846,
      "je": 1847,
      "cially": 1848,
      "favor": 1849,
      "suggest": 1850,
      "nice": 1851,
      "path": 1852,
      "ror": 1853,
      "inal": 1854,
      "ond": 1855,
      "forest": 1856,
      "focus": 1857,
      "color": 1858,
      "nan": 1859,
      "track": 1860,
      "direct": 1861,
      "dark": 1862,
      "rid": 1863,
      "seems": 1864,
      "iction": 1865,
      "aking": 1866,
      "rain": 1867,
      "record": 1868,
      "save": 1869,
      "aging": 1870,
      "smart": 1871,
      "changing": 1872,
      "tradition": 1873,
      "boy": 1874,
      "humans": 1875,
      "writing": 1876,
      "playing": 1877,
      "asking": 1878,
      "poll": 1879,
      "developing": 1880,
      "tools": 1881,
      "affect": 1882,
      "development": 1883,
      "running": 1884,
      "fair": 1885,
      "understanding": 1886,
      "girls": 1887,
      "fill": 1888,
      "ster": 1889,
      "flow": 1890,
      "challenge": 1891,
      "revolution": 1892,
      "creating": 1893,
      "incredible": 1894,
      "millions": 1895,
      "slow": 1896,
      "tu": 1897,
      "ouch": 1898,
      "alone": 1899,
      "realize": 1900,
      "ators": 1901,
      "truth": 1902,
      "mot": 1903,
      "tele": 1904,
      "normal": 1905,
      "online": 1906,
      "quality": 1907,
      "trust": 1908,
      "starting": 1909,
      "joy": 1910,
      "generation": 1911,
      "inese": 1912,
      "mine": 1913,
      "pan": 1914,
      "sal": 1915,
      "song": 1916,
      "espe": 1917,
      "numbers": 1918,
      "ocean": 1919,
      "tion": 1920,
      "soon": 1921,
      "wrote": 1922,
      "bes": 1923,
      "table": 1924,
      "produce": 1925,
      "benef": 1926,
      "invent": 1927,
      "issues": 1928,
      "band": 1929,
      "lies": 1930,
      "similar": 1931,
      "bottom": 1932,
      "guess": 1933,
      "patient": 1934,
      "general": 1935,
      "chinese": 1936,
      "relig": 1937,
      "rece": 1938,
      "likely": 1939,
      "consum": 1940,
      "innovation": 1941,
      "div": 1942,
      "eth": 1943,
      "lled": 1944,
      "consci": 1945,
      "literally": 1946,
      "izing": 1947,
      "ded": 1948,
      "nal": 1949,
      "vill": 1950,
      "express": 1951,
      "skill": 1952,
      "hundreds": 1953,
      "ordinary": 1954,
      "gal": 1955,
      "pal": 1956,
      "ensive": 1957,
      "cin": 1958,
      "west": 1959,
      "cks": 1960,
      "dy": 1961,
      "rul": 1962,
      "secre": 1963,
      "peri": 1964,
      "knows": 1965,
      "lad": 1966,
      "mul": 1967,
      "arr": 1968,
      "neigh": 1969,
      "result": 1970,
      "web": 1971,
      "convers": 1972,
      "current": 1973,
      "ibly": 1974,
      "ore": 1975,
      "tract": 1976,
      "confl": 1977,
      "emer": 1978,
      "forms": 1979,
      "auth": 1980,
      "card": 1981,
      "istan": 1982,
      "includ": 1983,
      "absolutely": 1984,
      "especially": 1985,
      "dim": 1986,
      "ju": 1987,
      "phil": 1988,
      "medic": 1989,
      "network": 1990,
      "70": 1991,
      "ding": 1992,
      "pa": 1993,
      "round": 1994,
      "sand": 1995,
      "areas": 1996,
      "seem": 1997,
      "cars": 1998,
      "patients": 1999,
      "movement": 2000,
      "dou": 2001,
      "polic": 2002,
      "gives": 2003,
      "university": 2004,
      "25": 2005,
      "tar": 2006,
      "count": 2007,
      "sounds": 2008,
      "11": 2009,
      "bey": 2010,
      "experien": 2011,
      "serious": 2012,
      "connected": 2013,
      "ba": 2014,
      "map": 2015,
      "sea": 2016,
      "conf": 2017,
      "function": 2018,
      "cing": 2019,
      "touch": 2020,
      "wish": 2021,
      "moved": 2022,
      "90": 2023,
      "ired": 2024,
      "theory": 2025,
      "sli": 2026,
      "ley": 2027,
      "nobody": 2028,
      "discovered": 2029,
      "represent": 2030,
      "star": 2031,
      "genet": 2032,
      "pictures": 2033,
      "hun": 2034,
      "showed": 2035,
      "push": 2036,
      "liz": 2037,
      "industry": 2038,
      "nine": 2039,
      "wide": 2040,
      "ref": 2041,
      "door": 2042,
      "proper": 2043,
      "spect": 2044,
      "carbon": 2045,
      "visual": 2046,
      "avail": 2047,
      "responsi": 2048,
      "ony": 2049,
      "feet": 2050,
      "happiness": 2051,
      "teachers": 2052,
      "fortun": 2053,
      "predict": 2054,
      "north": 2055,
      "intell": 2056,
      "fold": 2057,
      "intellig": 2058,
      "games": 2059,
      "ister": 2060,
      "goog": 2061,
      "code": 2062,
      "aware": 2063,
      "fundam": 2064,
      "tribut": 2065,
      "fundament": 2066,
      "ior": 2067,
      "entially": 2068,
      "strate": 2069,
      "position": 2070,
      "subject": 2071,
      "materials": 2072,
      "incredibly": 2073,
      "evolution": 2074,
      "east": 2075,
      "asing": 2076,
      "ased": 2077,
      "necess": 2078,
      "ift": 2079,
      "challeng": 2080,
      "birth": 2081,
      "ese": 2082,
      "arm": 2083,
      "potential": 2084,
      "democracy": 2085,
      "indeed": 2086,
      "hit": 2087,
      "mob": 2088,
      "const": 2089,
      "surface": 2090,
      "compass": 2091,
      "source": 2092,
      "chr": 2093,
      "ches": 2094,
      "wait": 2095,
      "moun": 2096,
      "among": 2097,
      "talked": 2098,
      "transform": 2099,
      "recently": 2100,
      "obviously": 2101,
      "resources": 2102,
      "pose": 2103,
      "usion": 2104,
      "activ": 2105,
      "ried": 2106,
      "message": 2107,
      "ham": 2108,
      "haven": 2109,
      "shape": 2110,
      "beyond": 2111,
      "office": 2112,
      "groups": 2113,
      "wood": 2114,
      "onto": 2115,
      "prim": 2116,
      "lock": 2117,
      "except": 2118,
      "ference": 2119,
      "ame": 2120,
      "detail": 2121,
      "cover": 2122,
      "chance": 2123,
      "choice": 2124,
      "joh": 2125,
      "danger": 2126,
      "involved": 2127,
      "late": 2128,
      "rap": 2129,
      "schools": 2130,
      "attack": 2131,
      "period": 2132,
      "multi": 2133,
      "google": 2134,
      "sam": 2135,
      "tle": 2136,
      "prov": 2137,
      "medical": 2138,
      "electric": 2139,
      "digital": 2140,
      "aur": 2141,
      "fant": 2142,
      "ences": 2143,
      "sold": 2144,
      "journey": 2145,
      "leader": 2146,
      "moral": 2147,
      "tiny": 2148,
      "cit": 2149,
      "lay": 2150,
      "ilities": 2151,
      "technologies": 2152,
      "town": 2153,
      "aim": 2154,
      "gent": 2155,
      "mand": 2156,
      "please": 2157,
      "azy": 2158,
      "rules": 2159,
      "available": 2160,
      "jud": 2161,
      "los": 2162,
      "lines": 2163,
      "ric": 2164,
      "cause": 2165,
      "mechan": 2166,
      "poin": 2167,
      "walking": 2168,
      "violence": 2169,
      "ran": 2170,
      "sever": 2171,
      "concer": 2172,
      "mail": 2173,
      "creative": 2174,
      "consider": 2175,
      "situation": 2176,
      "dimens": 2177,
      "kets": 2178,
      "construct": 2179,
      "designed": 2180,
      "projects": 2181,
      "iant": 2182,
      "ghan": 2183,
      "ades": 2184,
      "concept": 2185,
      "teacher": 2186,
      "device": 2187,
      "screen": 2188,
      "conscious": 2189,
      "compassion": 2190,
      "hol": 2191,
      "lived": 2192,
      "psycho": 2193,
      "ake": 2194,
      "mos": 2195,
      "progress": 2196,
      "ived": 2197,
      "everywhere": 2198,
      "memory": 2199,
      "passion": 2200,
      "drive": 2201,
      "cli": 2202,
      "ency": 2203,
      "loc": 2204,
      "individuals": 2205,
      "miles": 2206,
      "anti": 2207,
      "putting": 2208,
      "minute": 2209,
      "micr": 2210,
      "clean": 2211,
      "freed": 2212,
      "john": 2213,
      "sor": 2214,
      "tural": 2215,
      "suddenly": 2216,
      "lon": 2217,
      "thes": 2218,
      "icans": 2219,
      "tex": 2220,
      "author": 2221,
      "report": 2222,
      "becomes": 2223,
      "waste": 2224,
      "deli": 2225,
      "brid": 2226,
      "cris": 2227,
      "tells": 2228,
      "pair": 2229,
      "chair": 2230,
      "enter": 2231,
      "shop": 2232,
      "blind": 2233,
      "died": 2234,
      "jap": 2235,
      "abor": 2236,
      "mental": 2237,
      "evidence": 2238,
      "syn": 2239,
      "bigger": 2240,
      "abo": 2241,
      "certainly": 2242,
      "hospital": 2243,
      "japan": 2244,
      "bel": 2245,
      "bodies": 2246,
      "magic": 2247,
      "kept": 2248,
      "print": 2249,
      "ump": 2250,
      "results": 2251,
      "computers": 2252,
      "improve": 2253,
      "further": 2254,
      "cos": 2255,
      "chris": 2256,
      "suff": 2257,
      "crazy": 2258,
      "reasons": 2259,
      "particip": 2260,
      "stress": 2261,
      "anybody": 2262,
      "ival": 2263,
      "tware": 2264,
      "brains": 2265,
      "scientific": 2266,
      "introd": 2267,
      "freedom": 2268,
      "bacter": 2269,
      "mir": 2270,
      "zer": 2271,
      "arily": 2272,
      "lif": 2273,
      "ably": 2274,
      "positive": 2275,
      "prison": 2276,
      "lose": 2277,
      "tally": 2278,
      "towards": 2279,
      "oph": 2280,
      "trial": 2281,
      "college": 2282,
      "chemical": 2283,
      "software": 2284,
      "san": 2285,
      "sch": 2286,
      "ows": 2287,
      "notice": 2288,
      "talks": 2289,
      "basic": 2290,
      "content": 2291,
      "square": 2292,
      "favorite": 2293,
      "ges": 2294,
      "mas": 2295,
      "wes": 2296,
      "income": 2297,
      "ified": 2298,
      "standard": 2299,
      "threat": 2300,
      "gt": 2301,
      "tv": 2302,
      "ture": 2303,
      "ites": 2304,
      "vert": 2305,
      "clin": 2306,
      "solar": 2307,
      "calcul": 2308,
      "leaders": 2309,
      "citiz": 2310,
      "deter": 2311,
      "antly": 2312,
      "plants": 2313,
      "taught": 2314,
      "starts": 2315,
      "examples": 2316,
      "hop": 2317,
      "bank": 2318,
      "hiv": 2319,
      "luck": 2320,
      "term": 2321,
      "biggest": 2322,
      "student": 2323,
      "biolog": 2324,
      "allowed": 2325,
      "several": 2326,
      "faster": 2327,
      "pack": 2328,
      "ify": 2329,
      "ama": 2330,
      "speed": 2331,
      "surprising": 2332,
      "camera": 2333,
      "apart": 2334,
      "sect": 2335,
      "secur": 2336,
      "math": 2337,
      "choose": 2338,
      "believ": 2339,
      "particularly": 2340,
      "gas": 2341,
      "offe": 2342,
      "weight": 2343,
      "wash": 2344,
      "brit": 2345,
      "showing": 2346,
      "mountain": 2347,
      "sus": 2348,
      "vacc": 2349,
      "zz": 2350,
      "ene": 2351,
      "nel": 2352,
      "load": 2353,
      "mission": 2354,
      "eventually": 2355,
      "neighbor": 2356,
      "oid": 2357,
      "swe": 2358,
      "swi": 2359,
      "wild": 2360,
      "finan": 2361,
      "bul": 2362,
      "mers": 2363,
      "spr": 2364,
      "sess": 2365,
      "meth": 2366,
      "loved": 2367,
      "crim": 2368,
      "communities": 2369,
      "jobs": 2370,
      "drugs": 2371,
      "western": 2372,
      "fix": 2373,
      "ime": 2374,
      "infect": 2375,
      "glass": 2376,
      "totally": 2377,
      "comfort": 2378,
      "rais": 2379,
      "response": 2380,
      "cru": 2381,
      "labor": 2382,
      "decisions": 2383,
      "fas": 2384,
      "arg": 2385,
      "dete": 2386,
      "ung": 2387,
      "immedi": 2388,
      "agree": 2389,
      "carry": 2390,
      "minds": 2391,
      "region": 2392,
      "collabor": 2393,
      "specific": 2394,
      "dad": 2395,
      "page": 2396,
      "rand": 2397,
      "ring": 2398,
      "loy": 2399,
      "worse": 2400,
      "cuss": 2401,
      "secret": 2402,
      "rible": 2403,
      "agn": 2404,
      "watching": 2405,
      "village": 2406,
      "security": 2407,
      "xic": 2408,
      "sem": 2409,
      "sell": 2410,
      "ption": 2411,
      "park": 2412,
      "training": 2413,
      "bat": 2414,
      "remark": 2415,
      "argu": 2416,
      "context": 2417,
      "virt": 2418,
      "character": 2419,
      "rus": 2420,
      "ery": 2421,
      "prote": 2422,
      "mak": 2423,
      "studies": 2424,
      "cape": 2425,
      "grew": 2426,
      "organiz": 2427,
      "skin": 2428,
      "traditional": 2429,
      "link": 2430,
      "arab": 2431,
      "antic": 2432,
      "mathem": 2433,
      "foc": 2434,
      "cold": 2435,
      "international": 2436,
      "wise": 2437,
      "wants": 2438,
      "cross": 2439,
      "service": 2440,
      "named": 2441,
      "bom": 2442,
      "pover": 2443,
      "van": 2444,
      "influ": 2445,
      "doc": 2446,
      "shown": 2447,
      "oken": 2448,
      "decision": 2449,
      "vari": 2450,
      "conflict": 2451,
      "including": 2452,
      "fortunately": 2453,
      "crisis": 2454,
      "poverty": 2455,
      "cup": 2456,
      "hur": 2457,
      "activity": 2458,
      "artist": 2459,
      "perspect": 2460,
      "central": 2461,
      "buildings": 2462,
      "largest": 2463,
      "organization": 2464,
      "sky": 2465,
      "trees": 2466,
      "daugh": 2467,
      "elect": 2468,
      "lat": 2469,
      "nuc": 2470,
      "insp": 2471,
      "separ": 2472,
      "meant": 2473,
      "wife": 2474,
      "temper": 2475,
      "rect": 2476,
      "movie": 2477,
      "cook": 2478,
      "effic": 2479,
      "allows": 2480,
      "appear": 2481,
      "types": 2482,
      "points": 2483,
      "reci": 2484,
      "wel": 2485,
      "icks": 2486,
      "bud": 2487,
      "finding": 2488,
      "continue": 2489,
      "objects": 2490,
      "oxy": 2491,
      "mobile": 2492,
      "dav": 2493,
      "hom": 2494,
      "iger": 2495,
      "phen": 2496,
      "products": 2497,
      "bing": 2498,
      "mist": 2499,
      "vil": 2500,
      "rem": 2501,
      "stri": 2502,
      "rial": 2503,
      "saving": 2504,
      "core": 2505,
      "lights": 2506,
      "version": 2507,
      "politics": 2508,
      "16": 2509,
      "tens": 2510,
      "itary": 2511,
      "usually": 2512,
      "afghan": 2513,
      "expensive": 2514,
      "extremely": 2515,
      "def": 2516,
      "solutions": 2517,
      "americans": 2518,
      "engineering": 2519,
      "truly": 2520,
      "familiar": 2521,
      "cases": 2522,
      "fit": 2523,
      "tit": 2524,
      "atory": 2525,
      "isl": 2526,
      "associ": 2527,
      "icle": 2528,
      "engage": 2529,
      "conditions": 2530,
      "killed": 2531,
      "listening": 2532,
      "cat": 2533,
      "mous": 2534,
      "nut": 2535,
      "sme": 2536,
      "respect": 2537,
      "itten": 2538,
      "standing": 2539,
      "howe": 2540,
      "supposed": 2541,
      "signific": 2542,
      "excited": 2543,
      "conversation": 2544,
      "nation": 2545,
      "goal": 2546,
      "anymore": 2547,
      "istics": 2548,
      "reading": 2549,
      "earli": 2550,
      "david": 2551,
      "14": 2552,
      "cise": 2553,
      "hous": 2554,
      "muse": 2555,
      "rights": 2556,
      "famous": 2557,
      "african": 2558,
      "plicated": 2559,
      "lower": 2560,
      "brand": 2561,
      "surger": 2562,
      "unders": 2563,
      "models": 2564,
      "however": 2565,
      "13": 2566,
      "500": 2567,
      "cas": 2568,
      "hid": 2569,
      "wis": 2570,
      "alive": 2571,
      "provide": 2572,
      "role": 2573,
      "els": 2574,
      "courage": 2575,
      "machines": 2576,
      "continu": 2577,
      "exciting": 2578,
      "extraordinary": 2579,
      "above": 2580,
      "rise": 2581,
      "impossible": 2582,
      "higher": 2583,
      "plane": 2584,
      "sorts": 2585,
      "production": 2586,
      "robots": 2587,
      "successful": 2588,
      "princi": 2589,
      "ders": 2590,
      "eties": 2591,
      "ables": 2592,
      "deb": 2593,
      "pros": 2594,
      "stra": 2595,
      "societies": 2596,
      "pull": 2597,
      "raise": 2598,
      "skills": 2599,
      "somehow": 2600,
      "rob": 2601,
      "strug": 2602,
      "manage": 2603,
      "store": 2604,
      "philos": 2605,
      "fascin": 2606,
      "museum": 2607,
      "faces": 2608,
      "scan": 2609,
      "anyway": 2610,
      "anywhere": 2611,
      "capital": 2612,
      "doctors": 2613,
      "policy": 2614,
      "method": 2615,
      "slight": 2616,
      "trou": 2617,
      "strange": 2618,
      "hero": 2619,
      "families": 2620,
      "hall": 2621,
      "ky": 2622,
      "demon": 2623,
      "urban": 2624,
      "teen": 2625,
      "afford": 2626,
      "teaching": 2627,
      "healthy": 2628,
      "fundamental": 2629,
      "financial": 2630,
      "bunch": 2631,
      "iran": 2632,
      "ulate": 2633,
      "essentially": 2634,
      "party": 2635,
      "trade": 2636,
      "pieces": 2637,
      "effective": 2638,
      "genetic": 2639,
      "cular": 2640,
      "ann": 2641,
      "neg": 2642,
      "somewhere": 2643,
      "plastic": 2644,
      "upon": 2645,
      "proto": 2646,
      "humanity": 2647,
      "series": 2648,
      "legal": 2649,
      "neurons": 2650,
      "ners": 2651,
      "ultim": 2652,
      "throughout": 2653,
      "hole": 2654,
      "treatment": 2655,
      "increasing": 2656,
      "swim": 2657,
      "ech": 2658,
      "nia": 2659,
      "iced": 2660,
      "actual": 2661,
      "cient": 2662,
      "president": 2663,
      "funny": 2664,
      "colleag": 2665,
      "explore": 2666,
      "gree": 2667,
      "none": 2668,
      "ray": 2669,
      "dog": 2670,
      "willing": 2671,
      "written": 2672,
      "osphere": 2673,
      "massive": 2674,
      "critical": 2675,
      "straight": 2676,
      "pers": 2677,
      "ending": 2678,
      "distribut": 2679,
      "larger": 2680,
      "clearly": 2681,
      "journal": 2682,
      "random": 2683,
      "17": 2684,
      "becoming": 2685,
      "active": 2686,
      "uction": 2687,
      "pression": 2688,
      "cules": 2689,
      "beauty": 2690,
      "patterns": 2691,
      "smo": 2692,
      "female": 2693,
      "discuss": 2694,
      "deser": 2695,
      "genes": 2696,
      "babies": 2697,
      "seconds": 2698,
      "recognize": 2699,
      "reflect": 2700,
      "bread": 2701,
      "base": 2702,
      "gar": 2703,
      "site": 2704,
      "ira": 2705,
      "tered": 2706,
      "thanks": 2707,
      "greater": 2708,
      "police": 2709,
      "connection": 2710,
      "spirit": 2711,
      "perspective": 2712,
      "isra": 2713,
      "accept": 2714,
      "therefore": 2715,
      "ieve": 2716,
      "corrup": 2717,
      "belief": 2718,
      "launch": 2719,
      "nur": 2720,
      "webs": 2721,
      "stick": 2722,
      "shot": 2723,
      "older": 2724,
      "check": 2725,
      "industrial": 2726,
      "radio": 2727,
      "medicine": 2728,
      "bol": 2729,
      "lying": 2730,
      "compet": 2731,
      "contro": 2732,
      "unique": 2733,
      "smaller": 2734,
      "environmental": 2735,
      "occur": 2736,
      "molecules": 2737,
      "fantastic": 2738,
      "cis": 2739,
      "fing": 2740,
      "nic": 2741,
      "optim": 2742,
      "complicated": 2743,
      "speaking": 2744,
      "shared": 2745,
      "brea": 2746,
      "discover": 2747,
      "aust": 2748,
      "race": 2749,
      "integr": 2750,
      "legs": 2751,
      "painting": 2752,
      "bacteria": 2753,
      "cope": 2754,
      "atom": 2755,
      "uments": 2756,
      "achieve": 2757,
      "creativity": 2758,
      "join": 2759,
      "gradu": 2760,
      "architecture": 2761,
      "honest": 2762,
      "tas": 2763,
      "arri": 2764,
      "liber": 2765,
      "contain": 2766,
      "cry": 2767,
      "throw": 2768,
      "akes": 2769,
      "final": 2770,
      "contri": 2771,
      "dangerous": 2772,
      "fle": 2773,
      "vul": 2774,
      "onic": 2775,
      "ops": 2776,
      "civi": 2777,
      "offic": 2778,
      "condition": 2779,
      "biology": 2780,
      "decades": 2781,
      "diagn": 2782,
      "costs": 2783,
      "electricity": 2784,
      "immediately": 2785,
      "ered": 2786,
      "ium": 2787,
      "sad": 2788,
      "levels": 2789,
      "increase": 2790,
      "organizations": 2791,
      "mathemat": 2792,
      "tood": 2793,
      "aries": 2794,
      "beat": 2795,
      "entre": 2796,
      "forth": 2797,
      "claim": 2798,
      "cultural": 2799,
      "performance": 2800,
      "practice": 2801,
      "surgery": 2802,
      "understood": 2803,
      "website": 2804,
      "ado": 2805,
      "onom": 2806,
      "cele": 2807,
      "resist": 2808,
      "beings": 2809,
      "transl": 2810,
      "birds": 2811,
      "remarkable": 2812,
      "afghanistan": 2813,
      "gain": 2814,
      "preneur": 2815,
      "related": 2816,
      "popular": 2817,
      "sustainable": 2818,
      "zero": 2819,
      "entrepreneur": 2820,
      "itation": 2821,
      "acity": 2822,
      "demand": 2823,
      "adap": 2824,
      "ustr": 2825,
      "services": 2826,
      "celebr": 2827,
      "cket": 2828,
      "ograph": 2829,
      "tree": 2830,
      "hell": 2831,
      "habit": 2832,
      "stream": 2833,
      "summer": 2834,
      "earlier": 2835,
      "agr": 2836,
      "fat": 2837,
      "cloud": 2838,
      "following": 2839,
      "citizens": 2840,
      "aign": 2841,
      "hus": 2842,
      "mr": 2843,
      "ories": 2844,
      "forget": 2845,
      "traf": 2846,
      "cade": 2847,
      "shar": 2848,
      "ishing": 2849,
      "evolved": 2850,
      "campaign": 2851,
      "intelligence": 2852,
      "daughter": 2853,
      "contribut": 2854,
      "dance": 2855,
      "fi": 2856,
      "lap": 2857,
      "remain": 2858,
      "enjoy": 2859,
      "thern": 2860,
      "mention": 2861,
      "cali": 2862,
      "waiting": 2863,
      "direction": 2864,
      "private": 2865,
      "television": 2866,
      "infr": 2867,
      "instr": 2868,
      "omen": 2869,
      "opt": 2870,
      "suit": 2871,
      "pleas": 2872,
      "boys": 2873,
      "gotten": 2874,
      "interview": 2875,
      "physic": 2876,
      "walked": 2877,
      "military": 2878,
      "emotional": 2879,
      "broad": 2880,
      "coffe": 2881,
      "fash": 2882,
      "laugh": 2883,
      "mix": 2884,
      "wealth": 2885,
      "stars": 2886,
      "veh": 2887,
      "price": 2888,
      "compe": 2889,
      "useful": 2890,
      "iling": 2891,
      "harv": 2892,
      "psych": 2893,
      "challenges": 2894,
      "imm": 2895,
      "sharing": 2896,
      "crow": 2897,
      "assum": 2898,
      "prevent": 2899,
      "career": 2900,
      "sexual": 2901,
      "purpose": 2902,
      "bridge": 2903,
      "coffee": 2904,
      "mad": 2905,
      "tap": 2906,
      "thetic": 2907,
      "gold": 2908,
      "plac": 2909,
      "spaces": 2910,
      "auto": 2911,
      "address": 2912,
      "vulner": 2913,
      "scr": 2914,
      "whose": 2915,
      "frame": 2916,
      "justice": 2917,
      "helped": 2918,
      "himself": 2919,
      "slightly": 2920,
      "eating": 2921,
      "lin": 2922,
      "tun": 2923,
      "task": 2924,
      "knowing": 2925,
      "embr": 2926,
      "choices": 2927,
      "versity": 2928,
      "match": 2929,
      "driving": 2930,
      "dependent": 2931,
      "obvious": 2932,
      "focused": 2933,
      "nuclear": 2934,
      "email": 2935,
      "lu": 2936,
      "weren": 2937,
      "quar": 2938,
      "lie": 2939,
      "tery": 2940,
      "rock": 2941,
      "cles": 2942,
      "carto": 2943,
      "surround": 2944,
      "although": 2945,
      "attle": 2946,
      "values": 2947,
      "experiments": 2948,
      "invented": 2949,
      "phenomen": 2950,
      "smell": 2951,
      "21": 2952,
      "gle": 2953,
      "river": 2954,
      "roll": 2955,
      "speech": 2956,
      "physics": 2957,
      "classroom": 2958,
      "neighborhood": 2959,
      "inspired": 2960,
      "iraq": 2961,
      "cure": 2962,
      "catch": 2963,
      "rom": 2964,
      "ses": 2965,
      "yle": 2966,
      "insect": 2967,
      "conference": 2968,
      "techni": 2969,
      "decide": 2970,
      "networks": 2971,
      "motiv": 2972,
      "fashion": 2973,
      "mut": 2974,
      "fellow": 2975,
      "worry": 2976,
      "moon": 2977,
      "destro": 2978,
      "creates": 2979,
      "analy": 2980,
      "bound": 2981,
      "range": 2982,
      "anda": 2983,
      "iti": 2984,
      "select": 2985,
      "highly": 2986,
      "cycle": 2987,
      "custom": 2988,
      "answers": 2989,
      "meeting": 2990,
      "copy": 2991,
      "target": 2992,
      "24": 2993,
      "bits": 2994,
      "ked": 2995,
      "account": 2996,
      "quire": 2997,
      "hey": 2998,
      "plat": 2999,
      "bub": 3000,
      "members": 3001,
      "facebook": 3002,
      "complexity": 3003,
      "comfortable": 3004,
      "islam": 3005,
      "blog": 3006,
      "istry": 3007,
      "bees": 3008,
      "note": 3009,
      "counter": 3010,
      "drink": 3011,
      "correct": 3012,
      "transport": 3013,
      "identity": 3014,
      "profit": 3015,
      "rule": 3016,
      "dar": 3017,
      "dro": 3018,
      "gun": 3019,
      "hack": 3020,
      "enor": 3021,
      "org": 3022,
      "decade": 3023,
      "unfortunately": 3024,
      "artists": 3025,
      "wheel": 3026,
      "turning": 3027,
      "instance": 3028,
      "virus": 3029,
      "profound": 3030,
      "london": 3031,
      "temperature": 3032,
      "ahead": 3033,
      "cand": 3034,
      "dying": 3035,
      "eg": 3036,
      "requi": 3037,
      "isms": 3038,
      "ceed": 3039,
      "frank": 3040,
      "differences": 3041,
      "uced": 3042,
      "corpor": 3043,
      "capacity": 3044,
      "dollar": 3045,
      "spending": 3046,
      "streets": 3047,
      "flying": 3048,
      "pic": 3049,
      "paid": 3050,
      "ya": 3051,
      "wered": 3052,
      "civil": 3053,
      "etc": 3054,
      "diseas": 3055,
      "manu": 3056,
      "breast": 3057,
      "survive": 3058,
      "galax": 3059,
      "slide": 3060,
      "mou": 3061,
      "scar": 3062,
      "greatest": 3063,
      "played": 3064,
      "shares": 3065,
      "micro": 3066,
      "original": 3067,
      "trouble": 3068,
      "reve": 3069,
      "icul": 3070,
      "unk": 3071,
      "worst": 3072,
      "concl": 3073,
      "phones": 3074,
      "commer": 3075,
      "ception": 3076,
      "plications": 3077,
      "various": 3078,
      "leadership": 3079,
      "narr": 3080,
      "held": 3081,
      "dered": 3082,
      "terrible": 3083,
      "consequ": 3084,
      "actions": 3085,
      "brings": 3086,
      "rench": 3087,
      "apped": 3088,
      "mostly": 3089,
      "foreign": 3090,
      "199": 3091,
      "scientist": 3092,
      "aids": 3093,
      "floor": 3094,
      "document": 3095,
      "traffic": 3096,
      "diseases": 3097,
      "pi": 3098,
      "era": 3099,
      "whal": 3100,
      "forces": 3101,
      "depart": 3102,
      "therap": 3103,
      "causes": 3104,
      "afraid": 3105,
      "published": 3106,
      "tube": 3107,
      "dynam": 3108,
      "responsib": 3109,
      "corruption": 3110,
      "husband": 3111,
      "eli": 3112,
      "pound": 3113,
      "inspir": 3114,
      "weap": 3115,
      "stren": 3116,
      "noticed": 3117,
      "tax": 3118,
      "sport": 3119,
      "partner": 3120,
      "foundation": 3121,
      "possibly": 3122,
      "produced": 3123,
      "cum": 3124,
      "master": 3125,
      "rough": 3126,
      "algor": 3127,
      "seed": 3128,
      "twice": 3129,
      "posite": 3130,
      "block": 3131,
      "advant": 3132,
      "communicate": 3133,
      "directly": 3134,
      "washing": 3135,
      "algorith": 3136,
      "300": 3137,
      "clo": 3138,
      "pil": 3139,
      "tes": 3140,
      "vast": 3141,
      "inj": 3142,
      "indian": 3143,
      "spo": 3144,
      "dram": 3145,
      "missing": 3146,
      "passed": 3147,
      "streng": 3148,
      "gay": 3149,
      "kil": 3150,
      "tum": 3151,
      "vic": 3152,
      "edge": 3153,
      "craf": 3154,
      "histor": 3155,
      "effort": 3156,
      "relative": 3157,
      "bringing": 3158,
      "civiliz": 3159,
      "califor": 3160,
      "bone": 3161,
      "bag": 3162,
      "cast": 3163,
      "hip": 3164,
      "loss": 3165,
      "pas": 3166,
      "below": 3167,
      "avoid": 3168,
      "devices": 3169,
      "nearly": 3170,
      "experiences": 3171,
      "necessary": 3172,
      "ently": 3173,
      "arts": 3174,
      "novel": 3175,
      "spot": 3176,
      "intu": 3177,
      "surve": 3178,
      "autism": 3179,
      "supply": 3180,
      "fuel": 3181,
      "cule": 3182,
      "emotion": 3183,
      "institutions": 3184,
      "gentle": 3185,
      "micros": 3186,
      "cam": 3187,
      "cate": 3188,
      "pite": 3189,
      "sector": 3190,
      "itted": 3191,
      "compon": 3192,
      "stopped": 3193,
      "propos": 3194,
      "communication": 3195,
      "pengu": 3196,
      "closer": 3197,
      "sorry": 3198,
      "mouth": 3199,
      "california": 3200,
      "dp": 3201,
      "tissue": 3202,
      "inct": 3203,
      "ancy": 3204,
      "acade": 3205,
      "prise": 3206,
      "mod": 3207,
      "igr": 3208,
      "cies": 3209,
      "reduce": 3210,
      "cooper": 3211,
      "basis": 3212,
      "native": 3213,
      "expand": 3214,
      "hearing": 3215,
      "deliver": 3216,
      "colleagues": 3217,
      "vit": 3218,
      "wear": 3219,
      "conserv": 3220,
      "braz": 3221,
      "bert": 3222,
      "moments": 3223,
      "trem": 3224,
      "mothers": 3225,
      "detect": 3226,
      "oxygen": 3227,
      "lack": 3228,
      "rare": 3229,
      "return": 3230,
      "island": 3231,
      "accord": 3232,
      "ends": 3233,
      "ards": 3234,
      "despite": 3235,
      "prep": 3236,
      "serve": 3237,
      "capture": 3238,
      "valu": 3239,
      "magaz": 3240,
      "opportunities": 3241,
      "molecule": 3242,
      "astruct": 3243,
      "religion": 3244,
      "infrastruct": 3245,
      "ave": 3246,
      "dia": 3247,
      "hang": 3248,
      "jan": 3249,
      "tough": 3250,
      "accur": 3251,
      "shift": 3252,
      "yellow": 3253,
      "helping": 3254,
      "norm": 3255,
      "switch": 3256,
      "radi": 3257,
      "consciousness": 3258,
      "psycholog": 3259,
      "ather": 3260,
      "fed": 3261,
      "fab": 3262,
      "lunch": 3263,
      "mur": 3264,
      "ub": 3265,
      "uary": 3266,
      "atm": 3267,
      "attract": 3268,
      "hair": 3269,
      "degre": 3270,
      "grown": 3271,
      "broken": 3272,
      "invis": 3273,
      "feels": 3274,
      "equip": 3275,
      "metaph": 3276,
      "israel": 3277,
      "ancient": 3278,
      "total": 3279,
      "ada": 3280,
      "ils": 3281,
      "studying": 3282,
      "addition": 3283,
      "structures": 3284,
      "programs": 3285,
      "brill": 3286,
      "lucky": 3287,
      "manufact": 3288,
      "3d": 3289,
      "vict": 3290,
      "zen": 3291,
      "seas": 3292,
      "acce": 3293,
      "lied": 3294,
      "opposite": 3295,
      "grade": 3296,
      "brother": 3297,
      "insight": 3298,
      "diet": 3299,
      "governments": 3300,
      "emplo": 3301,
      "significant": 3302,
      "degrees": 3303,
      "victim": 3304,
      "bought": 3305,
      "mam": 3306,
      "sn": 3307,
      "tan": 3308,
      "vot": 3309,
      "repe": 3310,
      "remind": 3311,
      "ison": 3312,
      "ising": 3313,
      "alter": 3314,
      "forever": 3315,
      "importantly": 3316,
      "puzz": 3317,
      "leading": 3318,
      "failure": 3319,
      "emotions": 3320,
      "majority": 3321,
      "responsible": 3322,
      "austral": 3323,
      "ecos": 3324,
      "fli": 3325,
      "iers": 3326,
      "itor": 3327,
      "vote": 3328,
      "itude": 3329,
      "cha": 3330,
      "exer": 3331,
      "dry": 3332,
      "commit": 3333,
      "imagination": 3334,
      "regular": 3335,
      "relationships": 3336,
      "pts": 3337,
      "sick": 3338,
      "tren": 3339,
      "otic": 3340,
      "compl": 3341,
      "marri": 3342,
      "colors": 3343,
      "intel": 3344,
      "balance": 3345,
      "cheap": 3346,
      "respond": 3347,
      "crime": 3348,
      "fresh": 3349,
      "wisdom": 3350,
      "tremend": 3351,
      "ened": 3352,
      "usual": 3353,
      "workers": 3354,
      "apply": 3355,
      "shel": 3356,
      "tempt": 3357,
      "effects": 3358,
      "laws": 3359,
      "shoot": 3360,
      "determin": 3361,
      "cred": 3362,
      "iest": 3363,
      "mi": 3364,
      "py": 3365,
      "heat": 3366,
      "wire": 3367,
      "gry": 3368,
      "strain": 3369,
      "creation": 3370,
      "lesson": 3371,
      "paral": 3372,
      "entirely": 3373,
      "window": 3374,
      "promise": 3375,
      "statistics": 3376,
      "benefits": 3377,
      "cod": 3378,
      "require": 3379,
      "asia": 3380,
      "arian": 3381,
      "chick": 3382,
      "trick": 3383,
      "fran": 3384,
      "estim": 3385,
      "coast": 3386,
      "newsp": 3387,
      "restaur": 3388,
      "differently": 3389,
      "easily": 3390,
      "benefit": 3391,
      "efficient": 3392,
      "philosop": 3393,
      "enormous": 3394,
      "400": 3395,
      "french": 3396,
      "mort": 3397,
      "ening": 3398,
      "myster": 3399,
      "events": 3400,
      "background": 3401,
      "hibit": 3402,
      "corner": 3403,
      "matters": 3404,
      "pressure": 3405,
      "equal": 3406,
      "fighting": 3407,
      "professor": 3408,
      "rapid": 3409,
      "argument": 3410,
      "atmosphere": 3411,
      "gard": 3412,
      "nations": 3413,
      "rout": 3414,
      "ystem": 3415,
      "atives": 3416,
      "station": 3417,
      "sets": 3418,
      "males": 3419,
      "pressed": 3420,
      "researchers": 3421,
      "describe": 3422,
      "relev": 3423,
      "british": 3424,
      "diagnos": 3425,
      "rat": 3426,
      "itter": 3427,
      "icles": 3428,
      "chur": 3429,
      "chain": 3430,
      "prior": 3431,
      "ifically": 3432,
      "acts": 3433,
      "voices": 3434,
      "photos": 3435,
      "parent": 3436,
      "deeply": 3437,
      "definition": 3438,
      "houses": 3439,
      "infrastructure": 3440,
      "ecosystem": 3441,
      "due": 3442,
      "han": 3443,
      "stor": 3444,
      "vere": 3445,
      "ques": 3446,
      "ager": 3447,
      "agers": 3448,
      "itely": 3449,
      "bled": 3450,
      "compared": 3451,
      "ysis": 3452,
      "diversity": 3453,
      "explor": 3454,
      "dreams": 3455,
      "landscape": 3456,
      "fascinating": 3457,
      "responsibility": 3458,
      "according": 3459,
      "mc": 3460,
      "nit": 3461,
      "rac": 3462,
      "incent": 3463,
      "reward": 3464,
      "metal": 3465,
      "terror": 3466,
      "ender": 3467,
      "limited": 3468,
      "politic": 3469,
      "frequ": 3470,
      "typical": 3471,
      "received": 3472,
      "suffering": 3473,
      "demonstr": 3474,
      "adapt": 3475,
      "strength": 3476,
      "invisible": 3477,
      "adults": 3478,
      "motor": 3479,
      "izes": 3480,
      "letter": 3481,
      "faith": 3482,
      "finished": 3483,
      "keeping": 3484,
      "shoes": 3485,
      "domin": 3486,
      "distance": 3487,
      "european": 3488,
      "du": 3489,
      "ns": 3490,
      "rational": 3491,
      "apers": 3492,
      "lets": 3493,
      "users": 3494,
      "ulations": 3495,
      "grab": 3496,
      "sume": 3497,
      "interaction": 3498,
      "childhood": 3499,
      "techn": 3500,
      "shouldn": 3501,
      "designer": 3502,
      "198": 3503,
      "breath": 3504,
      "organic": 3505,
      "neuros": 3506,
      "propri": 3507,
      "accident": 3508,
      "raised": 3509,
      "remote": 3510,
      "negative": 3511,
      "department": 3512,
      "advantage": 3513,
      "brilliant": 3514,
      "ls": 3515,
      "rot": 3516,
      "assem": 3517,
      "chip": 3518,
      "meters": 3519,
      "conce": 3520,
      "illness": 3521,
      "covered": 3522,
      "gene": 3523,
      "offer": 3524,
      "visit": 3525,
      "drawing": 3526,
      "japanese": 3527,
      "biological": 3528,
      "virtual": 3529,
      "ultimately": 3530,
      "employe": 3531,
      "dial": 3532,
      "giant": 3533,
      "hill": 3534,
      "sen": 3535,
      "sight": 3536,
      "tour": 3537,
      "apple": 3538,
      "quant": 3539,
      "opin": 3540,
      "seemed": 3541,
      "coal": 3542,
      "pher": 3543,
      "genome": 3544,
      "paint": 3545,
      "figured": 3546,
      "collective": 3547,
      "cognitive": 3548,
      "symbol": 3549,
      "strategy": 3550,
      "spring": 3551,
      "destroy": 3552,
      "eco": 3553,
      "fol": 3554,
      "wit": 3555,
      "replace": 3556,
      "heav": 3557,
      "geor": 3558,
      "trip": 3559,
      "proud": 3560,
      "unte": 3561,
      "worldwide": 3562,
      "married": 3563,
      "markets": 3564,
      "creatures": 3565,
      "dinner": 3566,
      "holding": 3567,
      "daily": 3568,
      "possibility": 3569,
      "protein": 3570,
      "insects": 3571,
      "brazil": 3572,
      "date": 3573,
      "diction": 3574,
      "fif": 3575,
      "gap": 3576,
      "gdp": 3577,
      "hate": 3578,
      "ander": 3579,
      "aling": 3580,
      "stuck": 3581,
      "veget": 3582,
      "quote": 3583,
      "depression": 3584,
      "moves": 3585,
      "shut": 3586,
      "formed": 3587,
      "bling": 3588,
      "epide": 3589,
      "compare": 3590,
      "farmers": 3591,
      "volunte": 3592,
      "discovery": 3593,
      "empath": 3594,
      "circu": 3595,
      "perfectly": 3596,
      "paul": 3597,
      "45": 3598,
      "mouse": 3599,
      "rit": 3600,
      "zed": 3601,
      "aria": 3602,
      "edia": 3603,
      "stone": 3604,
      "ets": 3605,
      "managed": 3606,
      "awes": 3607,
      "swed": 3608,
      "democratic": 3609,
      "double": 3610,
      "xico": 3611,
      "hidden": 3612,
      "metaphor": 3613,
      "intellect": 3614,
      "tremendous": 3615,
      "bow": 3616,
      "clock": 3617,
      "ki": 3618,
      "tent": 3619,
      "zo": 3620,
      "anthr": 3621,
      "arct": 3622,
      "qual": 3623,
      "meat": 3624,
      "teles": 3625,
      "artific": 3626,
      "everyday": 3627,
      "appreci": 3628,
      "calls": 3629,
      "previ": 3630,
      "versus": 3631,
      "gather": 3632,
      "capable": 3633,
      "pected": 3634,
      "tempor": 3635,
      "failed": 3636,
      "investment": 3637,
      "convinc": 3638,
      "necessarily": 3639,
      "construction": 3640,
      "fal": 3641,
      "stim": 3642,
      "concent": 3643,
      "grav": 3644,
      "whenever": 3645,
      "thinks": 3646,
      "marke": 3647,
      "experts": 3648,
      "helps": 3649,
      "leads": 3650,
      "sites": 3651,
      "names": 3652,
      "billions": 3653,
      "fairly": 3654,
      "commercial": 3655,
      "magazine": 3656,
      "cow": 3657,
      "flight": 3658,
      "mart": 3659,
      "anced": 3660,
      "encies": 3661,
      "aspect": 3662,
      "section": 3663,
      "dol": 3664,
      "decl": 3665,
      "essential": 3666,
      "desire": 3667,
      "surge": 3668,
      "install": 3669,
      "easier": 3670,
      "languages": 3671,
      "universal": 3672,
      "filled": 3673,
      "dimensional": 3674,
      "increasingly": 3675,
      "eper": 3676,
      "ram": 3677,
      "scul": 3678,
      "advert": 3679,
      "uries": 3680,
      "plus": 3681,
      "shif": 3682,
      "umb": 3683,
      "otherwise": 3684,
      "precise": 3685,
      "mars": 3686,
      "studied": 3687,
      "planning": 3688,
      "rooms": 3689,
      "businesses": 3690,
      "investig": 3691,
      "unex": 3692,
      "homes": 3693,
      "placed": 3694,
      "equipment": 3695,
      "george": 3696,
      "flies": 3697,
      "ii": 3698,
      "pill": 3699,
      "weak": 3700,
      "icts": 3701,
      "liked": 3702,
      "user": 3703,
      "notion": 3704,
      "channel": 3705,
      "element": 3706,
      "contact": 3707,
      "watched": 3708,
      "ladies": 3709,
      "normally": 3710,
      "marriage": 3711,
      "awesome": 3712,
      "75": 3713,
      "egy": 3714,
      "jump": 3715,
      "sister": 3716,
      "spectr": 3717,
      "facts": 3718,
      "expert": 3719,
      "cycl": 3720,
      "charge": 3721,
      "factory": 3722,
      "leaving": 3723,
      "trained": 3724,
      "steps": 3725,
      "feedback": 3726,
      "origin": 3727,
      "influence": 3728,
      "shad": 3729,
      "appropri": 3730,
      "mexico": 3731,
      "define": 3732,
      "atell": 3733,
      "apping": 3734,
      "blow": 3735,
      "presents": 3736,
      "invited": 3737,
      "heads": 3738,
      "opened": 3739,
      "succeed": 3740,
      "radical": 3741,
      "struggle": 3742,
      "bright": 3743,
      "ios": 3744,
      "ka": 3745,
      "scare": 3746,
      "tori": 3747,
      "bell": 3748,
      "soli": 3749,
      "degree": 3750,
      "ads": 3751,
      "ulf": 3752,
      "iles": 3753,
      "puts": 3754,
      "20th": 3755,
      "generate": 3756,
      "economics": 3757,
      "electrical": 3758,
      "planets": 3759,
      "followed": 3760,
      "cutting": 3761,
      "circum": 3762,
      "losing": 3763,
      "entertain": 3764,
      "las": 3765,
      "satell": 3766,
      "weird": 3767,
      "wearing": 3768,
      "prize": 3769,
      "ami": 3770,
      "noise": 3771,
      "grid": 3772,
      "aff": 3773,
      "letters": 3774,
      "surprise": 3775,
      "opening": 3776,
      "subst": 3777,
      "convention": 3778,
      "honor": 3779,
      "expression": 3780,
      "seriously": 3781,
      "christ": 3782,
      "argue": 3783,
      "separate": 3784,
      "relevant": 3785,
      "anthrop": 3786,
      "150": 3787,
      "battle": 3788,
      "nas": 3789,
      "rural": 3790,
      "zing": 3791,
      "independent": 3792,
      "iding": 3793,
      "ifying": 3794,
      "fell": 3795,
      "obsess": 3796,
      "highest": 3797,
      "voc": 3798,
      "hypo": 3799,
      "damage": 3800,
      "sugar": 3801,
      "chemistry": 3802,
      "resource": 3803,
      "experienced": 3804,
      "vaccine": 3805,
      "australia": 3806,
      "einste": 3807,
      "mp": 3808,
      "mber": 3809,
      "spl": 3810,
      "libr": 3811,
      "grap": 3812,
      "twitter": 3813,
      "bles": 3814,
      "minister": 3815,
      "setting": 3816,
      "morrow": 3817,
      "begins": 3818,
      "sending": 3819,
      "survival": 3820,
      "professional": 3821,
      "surprised": 3822,
      "soldiers": 3823,
      "kne": 3824,
      "pir": 3825,
      "rs": 3826,
      "thri": 3827,
      "inner": 3828,
      "igno": 3829,
      "grain": 3830,
      "cortex": 3831,
      "imagin": 3832,
      "airplane": 3833,
      "fourth": 3834,
      "malaria": 3835,
      "driven": 3836,
      "engineers": 3837,
      "appeared": 3838,
      "violent": 3839,
      "currently": 3840,
      "constantly": 3841,
      "hurt": 3842,
      "associated": 3843,
      "competition": 3844,
      "einstein": 3845,
      "bic": 3846,
      "ros": 3847,
      "vig": 3848,
      "theater": 3849,
      "tomorrow": 3850,
      "army": 3851,
      "acters": 3852,
      "soph": 3853,
      "perce": 3854,
      "perception": 3855,
      "pole": 3856,
      "elements": 3857,
      "organized": 3858,
      "characters": 3859,
      "hopefully": 3860,
      "facing": 3861,
      "shapes": 3862,
      "safety": 3863,
      "concerned": 3864,
      "phenomenon": 3865,
      "organs": 3866,
      "weapons": 3867,
      "bly": 3868,
      "dress": 3869,
      "gift": 3870,
      "snow": 3871,
      "arms": 3872,
      "enty": 3873,
      "idents": 3874,
      "amin": 3875,
      "terr": 3876,
      "root": 3877,
      "shame": 3878,
      "killing": 3879,
      "collection": 3880,
      "described": 3881,
      "analysis": 3882,
      "suggests": 3883,
      "multiple": 3884,
      "dimensions": 3885,
      "holes": 3886,
      "location": 3887,
      "believed": 3888,
      "maker": 3889,
      "bubble": 3890,
      "washington": 3891,
      "church": 3892,
      "artificial": 3893,
      "bird": 3894,
      "dot": 3895,
      "eld": 3896,
      "sides": 3897,
      "wat": 3898,
      "thom": 3899,
      "atically": 3900,
      "weather": 3901,
      "bear": 3902,
      "forced": 3903,
      "gee": 3904,
      "unless": 3905,
      "maint": 3906,
      "berg": 3907,
      "transition": 3908,
      "patent": 3909,
      "musical": 3910,
      "farm": 3911,
      "identify": 3912,
      "operating": 3913,
      "kenya": 3914,
      "lady": 3915,
      "official": 3916,
      "laptop": 3917,
      "kilome": 3918,
      "acceler": 3919,
      "cking": 3920,
      "gi": 3921,
      "vas": 3922,
      "wow": 3923,
      "rely": 3924,
      "review": 3925,
      "belong": 3926,
      "actor": 3927,
      "hea": 3928,
      "abilities": 3929,
      "canada": 3930,
      "odes": 3931,
      "indic": 3932,
      "tian": 3933,
      "click": 3934,
      "cents": 3935,
      "crack": 3936,
      "command": 3937,
      "england": 3938,
      "finish": 3939,
      "solved": 3940,
      "harder": 3941,
      "leaves": 3942,
      "shock": 3943,
      "digit": 3944,
      "scene": 3945,
      "specifically": 3946,
      "cartoon": 3947,
      "craft": 3948,
      "witness": 3949,
      "lic": 3950,
      "tons": 3951,
      "refu": 3952,
      "adam": 3953,
      "whereas": 3954,
      "viet": 3955,
      "player": 3956,
      "curious": 3957,
      "attach": 3958,
      "warm": 3959,
      "charles": 3960,
      "horse": 3961,
      "slowly": 3962,
      "mosqui": 3963,
      "employees": 3964,
      "unexpected": 3965,
      "gment": 3966,
      "pin": 3967,
      "pac": 3968,
      "sco": 3969,
      "za": 3970,
      "accoun": 3971,
      "quid": 3972,
      "acting": 3973,
      "achi": 3974,
      "hasn": 3975,
      "transformation": 3976,
      "mush": 3977,
      "generations": 3978,
      "2008": 3979,
      "wondering": 3980,
      "plication": 3981,
      "paying": 3982,
      "closed": 3983,
      "satis": 3984,
      "printing": 3985,
      "religious": 3986,
      "70s": 3987,
      "passionate": 3988,
      "election": 3989,
      "valuable": 3990,
      "chicken": 3991,
      "mosquito": 3992,
      "dots": 3993,
      "host": 3994,
      "pig": 3995,
      "whom": 3996,
      "liquid": 3997,
      "geograph": 3998,
      "caused": 3999,
      "evil": 4000,
      "roof": 4001,
      "gue": 4002,
      "organisms": 4003,
      "testing": 4004,
      "empty": 4005,
      "molecular": 4006,
      "consumption": 4007,
      "property": 4008,
      "details": 4009,
      "distribution": 4010,
      "controlled": 4011,
      "crowd": 4012,
      "gender": 4013,
      "niger": 4014,
      "arrow": 4015,
      "stup": 4016,
      "soil": 4017,
      "conside": 4018,
      "extract": 4019,
      "emiss": 4020,
      "destr": 4021,
      "pregn": 4022,
      "drag": 4023,
      "humor": 4024,
      "solving": 4025,
      "smile": 4026,
      "treated": 4027,
      "engineer": 4028,
      "practical": 4029,
      "forests": 4030,
      "doub": 4031,
      "strateg": 4032,
      "clinical": 4033,
      "management": 4034,
      "pleasure": 4035,
      "penguins": 4036,
      "considered": 4037,
      "ai": 4038,
      "pto": 4039,
      "ride": 4040,
      "xim": 4041,
      "ret": 4042,
      "osaur": 4043,
      "itals": 4044,
      "option": 4045,
      "negot": 4046,
      "article": 4047,
      "awful": 4048,
      "studio": 4049,
      "ification": 4050,
      "graphic": 4051,
      "productive": 4052,
      "equival": 4053,
      "lawy": 4054,
      "ological": 4055,
      "circle": 4056,
      "fields": 4057,
      "sentence": 4058,
      "quiet": 4059,
      "walls": 4060,
      "motion": 4061,
      "makers": 4062,
      "graduate": 4063,
      "sharks": 4064,
      "francis": 4065,
      "negoti": 4066,
      "fiction": 4067,
      "oly": 4068,
      "ron": 4069,
      "vac": 4070,
      "regre": 4071,
      "atures": 4072,
      "asks": 4073,
      "bee": 4074,
      "hael": 4075,
      "ays": 4076,
      "dere": 4077,
      "exhibit": 4078,
      "caught": 4079,
      "grass": 4080,
      "eval": 4081,
      "interface": 4082,
      "ulture": 4083,
      "plays": 4084,
      "feelings": 4085,
      "matic": 4086,
      "limit": 4087,
      "videos": 4088,
      "driver": 4089,
      "occup": 4090,
      "burn": 4091,
      "cultures": 4092,
      "advent": 4093,
      "defined": 4094,
      "definitely": 4095,
      "photographs": 4096,
      "producing": 4097,
      "affected": 4098,
      "sweet": 4099,
      "consequences": 4100,
      "flip": 4101,
      "stupid": 4102,
      "gam": 4103,
      "pure": 4104,
      "tall": 4105,
      "isol": 4106,
      "mel": 4107,
      "lio": 4108,
      "ids": 4109,
      "neath": 4110,
      "frag": 4111,
      "frustr": 4112,
      "extin": 4113,
      "ured": 4114,
      "gro": 4115,
      "grant": 4116,
      "hadn": 4117,
      "ignor": 4118,
      "underneath": 4119,
      "writer": 4120,
      "vibr": 4121,
      "flower": 4122,
      "conduct": 4123,
      "court": 4124,
      "singing": 4125,
      "connections": 4126,
      "signal": 4127,
      "hydro": 4128,
      "grandmother": 4129,
      "pollen": 4130,
      "instrument": 4131,
      "civilization": 4132,
      "sculpt": 4133,
      "99": 4134,
      "bin": 4135,
      "bum": 4136,
      "hat": 4137,
      "pages": 4138,
      "scri": 4139,
      "via": 4140,
      "ware": 4141,
      "insur": 4142,
      "anger": 4143,
      "metr": 4144,
      "dogs": 4145,
      "myth": 4146,
      "cipl": 4147,
      "phr": 4148,
      "calling": 4149,
      "stock": 4150,
      "bio": 4151,
      "designers": 4152,
      "northern": 4153,
      "warming": 4154,
      "institution": 4155,
      "confidence": 4156,
      "intelligent": 4157,
      "infected": 4158,
      "vehicle": 4159,
      "pounds": 4160,
      "spoke": 4161,
      "empathy": 4162,
      "iat": 4163,
      "jum": 4164,
      "mult": 4165,
      "pm": 4166,
      "thir": 4167,
      "ana": 4168,
      "anx": 4169,
      "encourage": 4170,
      "beach": 4171,
      "irt": 4172,
      "deeper": 4173,
      "adult": 4174,
      "congress": 4175,
      "shark": 4176,
      "boat": 4177,
      "crete": 4178,
      "michael": 4179,
      "blocks": 4180,
      "electron": 4181,
      "grandfather": 4182,
      "silence": 4183,
      "desert": 4184,
      "politicians": 4185,
      "convinced": 4186,
      "etry": 4187,
      "gri": 4188,
      "mes": 4189,
      "pul": 4190,
      "pak": 4191,
      "wing": 4192,
      "reaction": 4193,
      "ingred": 4194,
      "ula": 4195,
      "notes": 4196,
      "prove": 4197,
      "poetry": 4198,
      "colon": 4199,
      "stood": 4200,
      "invention": 4201,
      "bike": 4202,
      "parad": 4203,
      "fewer": 4204,
      "expected": 4205,
      "brief": 4206,
      "released": 4207,
      "psychology": 4208,
      "debate": 4209,
      "narrative": 4210,
      "algorithms": 4211,
      "tumor": 4212,
      "credit": 4213,
      "maintain": 4214,
      "achiev": 4215,
      "pakistan": 4216,
      "35": 4217,
      "phas": 4218,
      "rhy": 4219,
      "tly": 4220,
      "winter": 4221,
      "eral": 4222,
      "staff": 4223,
      "iculture": 4224,
      "extend": 4225,
      "embar": 4226,
      "ensity": 4227,
      "manip": 4228,
      "minis": 4229,
      "personally": 4230,
      "shake": 4231,
      "nerv": 4232,
      "typically": 4233,
      "scen": 4234,
      "protection": 4235,
      "awareness": 4236,
      "mirac": 4237,
      "battery": 4238,
      "arrived": 4239,
      "21st": 4240,
      "folks": 4241,
      "equivalent": 4242,
      "gps": 4243,
      "jack": 4244,
      "pun": 4245,
      "thy": 4246,
      "reti": 4247,
      "severe": 4248,
      "liver": 4249,
      "plate": 4250,
      "saved": 4251,
      "powered": 4252,
      "vessel": 4253,
      "prefer": 4254,
      "observ": 4255,
      "march": 4256,
      "engaged": 4257,
      "aked": 4258,
      "importance": 4259,
      "players": 4260,
      "thoughts": 4261,
      "regard": 4262,
      "angle": 4263,
      "occas": 4264,
      "collap": 4265,
      "sources": 4266,
      "hospitals": 4267,
      "picked": 4268,
      "80s": 4269,
      "mountains": 4270,
      "launched": 4271,
      "techniques": 4272,
      "dynamic": 4273,
      "relatively": 4274,
      "gentlemen": 4275,
      "heavy": 4276,
      "concentr": 4277,
      "aks": 4278,
      "dest": 4279,
      "jac": 4280,
      "pow": 4281,
      "wars": 4282,
      "abstr": 4283,
      "union": 4284,
      "mov": 4285,
      "shr": 4286,
      "ateful": 4287,
      "ideal": 4288,
      "brown": 4289,
      "span": 4290,
      "lifetime": 4291,
      "lessons": 4292,
      "eastern": 4293,
      "critic": 4294,
      "emerging": 4295,
      "bomb": 4296,
      "budget": 4297,
      "mortality": 4298,
      "false": 4299,
      "spectrum": 4300,
      "circumst": 4301,
      "thomas": 4302,
      "bath": 4303,
      "jer": 4304,
      "rush": 4305,
      "som": 4306,
      "zone": 4307,
      "thal": 4308,
      "instruct": 4309,
      "toward": 4310,
      "itarian": 4311,
      "youtube": 4312,
      "selling": 4313,
      "wik": 4314,
      "worried": 4315,
      "frog": 4316,
      "cave": 4317,
      "izon": 4318,
      "buying": 4319,
      "dish": 4320,
      "poem": 4321,
      "2010": 4322,
      "autonom": 4323,
      "breaking": 4324,
      "processes": 4325,
      "risks": 4326,
      "consist": 4327,
      "effectively": 4328,
      "director": 4329,
      "stronger": 4330,
      "harvard": 4331,
      "newspaper": 4332,
      "garden": 4333,
      "technical": 4334,
      "intellectual": 4335,
      "gravity": 4336,
      "emissions": 4337,
      "nervous": 4338,
      "ey": 4339,
      "jaz": 4340,
      "kno": 4341,
      "mac": 4342,
      "init": 4343,
      "repair": 4344,
      "dece": 4345,
      "former": 4346,
      "goods": 4347,
      "preser": 4348,
      "simpl": 4349,
      "served": 4350,
      "ships": 4351,
      "bush": 4352,
      "yester": 4353,
      "angers": 4354,
      "tracking": 4355,
      "birthday": 4356,
      "principle": 4357,
      "requires": 4358,
      "victims": 4359,
      "exercise": 4360,
      "marketing": 4361,
      "solid": 4362,
      "nose": 4363,
      "pup": 4364,
      "aris": 4365,
      "lyn": 4366,
      "nets": 4367,
      "pray": 4368,
      "ulated": 4369,
      "comed": 4370,
      "talent": 4371,
      "discipl": 4372,
      "ength": 4373,
      "designing": 4374,
      "memories": 4375,
      "eleph": 4376,
      "topic": 4377,
      "scot": 4378,
      "status": 4379,
      "thesis": 4380,
      "trials": 4381,
      "vulnerable": 4382,
      "galaxy": 4383,
      "roughly": 4384,
      "epidemic": 4385,
      "gos": 4386,
      "jail": 4387,
      "maps": 4388,
      "yo": 4389,
      "eness": 4390,
      "seat": 4391,
      "sees": 4392,
      "quit": 4393,
      "height": 4394,
      "goals": 4395,
      "unlike": 4396,
      "magn": 4397,
      "reser": 4398,
      "co2": 4399,
      "owner": 4400,
      "logical": 4401,
      "string": 4402,
      "minim": 4403,
      "germany": 4404,
      "valley": 4405,
      "signals": 4406,
      "ologist": 4407,
      "amounts": 4408,
      "existing": 4409,
      "release": 4410,
      "institute": 4411,
      "introduced": 4412,
      "mistakes": 4413,
      "sports": 4414,
      "dolph": 4415,
      "yesterday": 4416,
      "600": 4417,
      "bare": 4418,
      "kore": 4419,
      "lor": 4420,
      "pest": 4421,
      "rates": 4422,
      "sir": 4423,
      "tch": 4424,
      "vin": 4425,
      "wine": 4426,
      "rew": 4427,
      "error": 4428,
      "meter": 4429,
      "exists": 4430,
      "grateful": 4431,
      "aston": 4432,
      "shell": 4433,
      "flat": 4434,
      "fund": 4435,
      "bottle": 4436,
      "wave": 4437,
      "added": 4438,
      "falling": 4439,
      "combine": 4440,
      "authority": 4441,
      "introduce": 4442,
      "laboratory": 4443,
      "principles": 4444,
      "candid": 4445,
      "restaurant": 4446,
      "sophistic": 4447,
      "2000": 4448,
      "65": 4449,
      "ffe": 4450,
      "gall": 4451,
      "tag": 4452,
      "ali": 4453,
      "ablish": 4454,
      "unit": 4455,
      "establish": 4456,
      "bran": 4457,
      "spin": 4458,
      "pool": 4459,
      "polio": 4460,
      "finance": 4461,
      "memor": 4462,
      "waves": 4463,
      "environments": 4464,
      "axis": 4465,
      "profession": 4466,
      "possibilities": 4467,
      "90s": 4468,
      "layer": 4469,
      "finger": 4470,
      "mathematics": 4471,
      "darwin": 4472,
      "intuitive": 4473,
      "conventional": 4474,
      "doubt": 4475,
      "james": 4476,
      "sacr": 4477,
      "ume": 4478,
      "wed": 4479,
      "anony": 4480,
      "reven": 4481,
      "attempt": 4482,
      "enced": 4483,
      "haiti": 4484,
      "peak": 4485,
      "plans": 4486,
      "rig": 4487,
      "carefully": 4488,
      "bang": 4489,
      "animation": 4490,
      "wake": 4491,
      "milk": 4492,
      "explains": 4493,
      "richard": 4494,
      "medium": 4495,
      "cards": 4496,
      "constit": 4497,
      "constant": 4498,
      "proteins": 4499,
      "entrepreneurs": 4500,
      "agriculture": 4501,
      "platform": 4502,
      "dramatic": 4503,
      "alternative": 4504,
      "appropriate": 4505,
      "scared": 4506,
      "kilometers": 4507,
      "bil": 4508,
      "migr": 4509,
      "orbit": 4510,
      "icon": 4511,
      "chimp": 4512,
      "quake": 4513,
      "exchange": 4514,
      "robert": 4515,
      "lessly": 4516,
      "cords": 4517,
      "funding": 4518,
      "polar": 4519,
      "economies": 4520,
      "border": 4521,
      "factor": 4522,
      "harm": 4523,
      "steel": 4524,
      "depends": 4525,
      "dealing": 4526,
      "sensitive": 4527,
      "behavioral": 4528,
      "meaningful": 4529,
      "participate": 4530,
      "lifest": 4531,
      "latin": 4532,
      "heroes": 4533,
      "romantic": 4534,
      "reveal": 4535,
      "accurate": 4536,
      "opinion": 4537,
      "bors": 4538,
      "dict": 4539,
      "fis": 4540,
      "pes": 4541,
      "wol": 4542,
      "item": 4543,
      "stan": 4544,
      "sters": 4545,
      "abol": 4546,
      "brothers": 4547,
      "inevit": 4548,
      "worlds": 4549,
      "bold": 4550,
      "distr": 4551,
      "desk": 4552,
      "flash": 4553,
      "ptions": 4554,
      "monitor": 4555,
      "interests": 4556,
      "cyber": 4557,
      "walks": 4558,
      "particles": 4559,
      "employ": 4560,
      "fundamentally": 4561,
      "subjects": 4562,
      "chemicals": 4563,
      "announ": 4564,
      "resistance": 4565,
      "mentioned": 4566,
      "scratch": 4567,
      "components": 4568,
      "sweden": 4569,
      "telescope": 4570,
      "circumstances": 4571,
      "ec": 4572,
      "gab": 4573,
      "gulf": 4574,
      "uit": 4575,
      "chose": 4576,
      "keys": 4577,
      "unusual": 4578,
      "fright": 4579,
      "proof": 4580,
      "applied": 4581,
      "boom": 4582,
      "chocol": 4583,
      "gency": 4584,
      "internal": 4585,
      "continent": 4586,
      "protest": 4587,
      "advice": 4588,
      "appears": 4589,
      "innovative": 4590,
      "privile": 4591,
      "sequence": 4592,
      "flowers": 4593,
      "carrying": 4594,
      "variety": 4595,
      "swimming": 4596,
      "atoms": 4597,
      "harvest": 4598,
      "survey": 4599,
      "rapidly": 4600,
      "temporary": 4601,
      "hydrogen": 4602,
      "collapse": 4603,
      "movies": 4604,
      "fan": 4605,
      "gate": 4606,
      "hide": 4607,
      "kitch": 4608,
      "lung": 4609,
      "thus": 4610,
      "eric": 4611,
      "tories": 4612,
      "encour": 4613,
      "heim": 4614,
      "abled": 4615,
      "iron": 4616,
      "gol": 4617,
      "explan": 4618,
      "illustr": 4619,
      "brow": 4620,
      "whel": 4621,
      "overwhel": 4622,
      "disaster": 4623,
      "firm": 4624,
      "intense": 4625,
      "percentage": 4626,
      "serving": 4627,
      "navig": 4628,
      "joined": 4629,
      "computing": 4630,
      "runs": 4631,
      "dinosaur": 4632,
      "films": 4633,
      "portra": 4634,
      "senses": 4635,
      "oceans": 4636,
      "astronom": 4637,
      "primary": 4638,
      "sample": 4639,
      "mechanical": 4640,
      "britain": 4641,
      "tension": 4642,
      "flex": 4643,
      "tape": 4644,
      "framework": 4645,
      "prepared": 4646,
      "philosophy": 4647,
      "rhyth": 4648,
      "23": 4649,
      "cue": 4650,
      "gg": 4651,
      "gust": 4652,
      "jam": 4653,
      "length": 4654,
      "pian": 4655,
      "sia": 4656,
      "yard": 4657,
      "reverse": 4658,
      "recycl": 4659,
      "entr": 4660,
      "cere": 4661,
      "amy": 4662,
      "shall": 4663,
      "resili": 4664,
      "plement": 4665,
      "apparen": 4666,
      "icted": 4667,
      "fake": 4668,
      "contrast": 4669,
      "muslim": 4670,
      "wondered": 4671,
      "generally": 4672,
      "elev": 4673,
      "economists": 4674,
      "operate": 4675,
      "ternal": 4676,
      "gling": 4677,
      "sunlight": 4678,
      "increased": 4679,
      "messages": 4680,
      "boxes": 4681,
      "satur": 4682,
      "attacks": 4683,
      "judge": 4684,
      "mirror": 4685,
      "defense": 4686,
      "journalist": 4687,
      "dense": 4688,
      "fusion": 4689,
      "mates": 4690,
      "tat": 4691,
      "twe": 4692,
      "vention": 4693,
      "ante": 4694,
      "weigh": 4695,
      "icing": 4696,
      "icking": 4697,
      "accompl": 4698,
      "doors": 4699,
      "loop": 4700,
      "concrete": 4701,
      "comment": 4702,
      "centers": 4703,
      "intim": 4704,
      "german": 4705,
      "airport": 4706,
      "paris": 4707,
      "relations": 4708,
      "movements": 4709,
      "passwords": 4710,
      "processing": 4711,
      "regions": 4712,
      "barri": 4713,
      "magnet": 4714,
      "soul": 4715,
      "teams": 4716,
      "shaped": 4717,
      "roads": 4718,
      "sustainability": 4719,
      "consumer": 4720,
      "hunger": 4721,
      "hoping": 4722,
      "vaccines": 4723,
      "crimin": 4724,
      "collaboration": 4725,
      "cooking": 4726,
      "embrace": 4727,
      "transportation": 4728,
      "manufacturing": 4729,
      "ritual": 4730,
      "destruction": 4731,
      "hen": 4732,
      "mm": 4733,
      "mile": 4734,
      "zy": 4735,
      "infin": 4736,
      "reject": 4737,
      "alex": 4738,
      "cher": 4739,
      "adic": 4740,
      "tea": 4741,
      "teeth": 4742,
      "agre": 4743,
      "centuries": 4744,
      "assign": 4745,
      "poo": 4746,
      "smith": 4747,
      "authen": 4748,
      "borders": 4749,
      "operation": 4750,
      "allowing": 4751,
      "2007": 4752,
      "factors": 4753,
      "southern": 4754,
      "advanced": 4755,
      "literature": 4756,
      "traveling": 4757,
      "combination": 4758,
      "antibi": 4759,
      "discussion": 4760,
      "library": 4761,
      "phase": 4762,
      "dut": 4763,
      "gin": 4764,
      "gates": 4765,
      "ouds": 4766,
      "applications": 4767,
      "constrain": 4768,
      "ctions": 4769,
      "cock": 4770,
      "clouds": 4771,
      "mune": 4772,
      "guard": 4773,
      "obama": 4774,
      "interpret": 4775,
      "stands": 4776,
      "facial": 4777,
      "windows": 4778,
      "convince": 4779,
      "conversations": 4780,
      "breathe": 4781,
      "islamic": 4782,
      "radiation": 4783,
      "circuit": 4784,
      "previous": 4785,
      "22": 4786,
      "bos": 4787,
      "gon": 4788,
      "iphone": 4789,
      "ji": 4790,
      "ko": 4791,
      "loud": 4792,
      "mim": 4793,
      "oth": 4794,
      "pace": 4795,
      "refr": 4796,
      "arrest": 4797,
      "stable": 4798,
      "stair": 4799,
      "chart": 4800,
      "trib": 4801,
      "prime": 4802,
      "ulty": 4803,
      "upper": 4804,
      "sahar": 4805,
      "gray": 4806,
      "crash": 4807,
      "guide": 4808,
      "offers": 4809,
      "flag": 4810,
      "instinct": 4811,
      "transplant": 4812,
      "busy": 4813,
      "clever": 4814,
      "equally": 4815,
      "ibility": 4816,
      "behaviors": 4817,
      "proport": 4818,
      "iency": 4819,
      "stayed": 4820,
      "include": 4821,
      "juli": 4822,
      "challenging": 4823,
      "russia": 4824,
      "eggs": 4825,
      "nasa": 4826,
      "grapher": 4827,
      "sophisticated": 4828,
      "chocolate": 4829,
      "kitchen": 4830,
      "bay": 4831,
      "cil": 4832,
      "ckets": 4833,
      "gut": 4834,
      "rass": 4835,
      "rition": 4836,
      "thick": 4837,
      "inations": 4838,
      "represents": 4839,
      "style": 4840,
      "icide": 4841,
      "unknown": 4842,
      "illegal": 4843,
      "ums": 4844,
      "proced": 4845,
      "illusion": 4846,
      "iving": 4847,
      "prepar": 4848,
      "colum": 4849,
      "controver": 4850,
      "parking": 4851,
      "19th": 4852,
      "identical": 4853,
      "earthquake": 4854,
      "dancing": 4855,
      "burning": 4856,
      "holds": 4857,
      "stere": 4858,
      "tonight": 4859,
      "dependence": 4860,
      "cameras": 4861,
      "sympto": 4862,
      "samples": 4863,
      "mechanism": 4864,
      "bombs": 4865,
      "nutrition": 4866,
      "therapy": 4867,
      "inspiration": 4868,
      "fabric": 4869,
      "martin": 4870,
      "knee": 4871,
      "embarrass": 4872,
      "lifestyle": 4873,
      "cats": 4874,
      "hits": 4875,
      "kn": 4876,
      "mri": 4877,
      "mate": 4878,
      "infl": 4879,
      "islands": 4880,
      "ale": 4881,
      "ara": 4882,
      "whist": 4883,
      "otics": 4884,
      "steve": 4885,
      "wired": 4886,
      "immune": 4887,
      "ament": 4888,
      "femin": 4889,
      "conver": 4890,
      "urally": 4891,
      "resto": 4892,
      "tie": 4893,
      "embed": 4894,
      "sheep": 4895,
      "poet": 4896,
      "pocket": 4897,
      "desper": 4898,
      "viruses": 4899,
      "globe": 4900,
      "certainty": 4901,
      "tests": 4902,
      "collecting": 4903,
      "horrible": 4904,
      "mainly": 4905,
      "reaching": 4906,
      "situations": 4907,
      "interactive": 4908,
      "hotel": 4909,
      "pollution": 4910,
      "transformed": 4911,
      "susp": 4912,
      "criminal": 4913,
      "mistake": 4914,
      "spiritual": 4915,
      "corporate": 4916,
      "satellite": 4917,
      "francisco": 4918,
      "wikip": 4919,
      "authentic": 4920,
      "hut": 4921,
      "pitch": 4922,
      "ald": 4923,
      "omes": 4924,
      "secure": 4925,
      "chap": 4926,
      "aret": 4927,
      "opath": 4928,
      "fears": 4929,
      "fro": 4930,
      "ulating": 4931,
      "extr": 4932,
      "somewhat": 4933,
      "perman": 4934,
      "kingdom": 4935,
      "overall": 4936,
      "display": 4937,
      "obes": 4938,
      "presence": 4939,
      "mony": 4940,
      "pulled": 4941,
      "197": 4942,
      "bott": 4943,
      "healthcare": 4944,
      "suppose": 4945,
      "signs": 4946,
      "physically": 4947,
      "surely": 4948,
      "devast": 4949,
      "largely": 4950,
      "potentially": 4951,
      "protected": 4952,
      "existence": 4953,
      "oxide": 4954,
      "broke": 4955,
      "divide": 4956,
      "palest": 4957,
      "neighbors": 4958,
      "properties": 4959,
      "determine": 4960,
      "prosper": 4961,
      "ultimate": 4962,
      "options": 4963,
      "vehicles": 4964,
      "technique": 4965,
      "pilot": 4966,
      "puzzle": 4967,
      "mystery": 4968,
      "fifth": 4969,
      "christmas": 4970,
      "bicy": 4971,
      "evalu": 4972,
      "wikipedia": 4973,
      "cart": 4974,
      "cous": 4975,
      "ik": 4976,
      "ius": 4977,
      "mt": 4978,
      "pour": 4979,
      "records": 4980,
      "oned": 4981,
      "gra": 4982,
      "empower": 4983,
      "spoken": 4984,
      "clust": 4985,
      "preci": 4986,
      "underwater": 4987,
      "ucing": 4988,
      "compar": 4989,
      "condom": 4990,
      "joke": 4991,
      "2009": 4992,
      "faced": 4993,
      "treating": 4994,
      "collected": 4995,
      "greenhouse": 4996,
      "advance": 4997,
      "closely": 4998,
      "rupt": 4999,
      "ridicul": 5000,
      "dedic": 5001,
      "functional": 5002,
      "chrom": 5003,
      "welcome": 5004,
      "housing": 5005,
      "mathematical": 5006,
      "vulnerability": 5007,
      "wheelchair": 5008,
      "whales": 5009,
      "january": 5010,
      "diagnosed": 5011,
      "dictionary": 5012,
      "shadow": 5013,
      "entertainment": 5014,
      "derek": 5015,
      "obesity": 5016,
      "honey": 5017,
      "jon": 5018,
      "len": 5019,
      "mall": 5020,
      "oon": 5021,
      "raw": 5022,
      "theme": 5023,
      "angry": 5024,
      "react": 5025,
      "atl": 5026,
      "asy": 5027,
      "lete": 5028,
      "sep": 5029,
      "chie": 5030,
      "utter": 5031,
      "opy": 5032,
      "neither": 5033,
      "trig": 5034,
      "implications": 5035,
      "implement": 5036,
      "admit": 5037,
      "plain": 5038,
      "noon": 5039,
      "tip": 5040,
      "rocket": 5041,
      "bug": 5042,
      "disappear": 5043,
      "intention": 5044,
      "olds": 5045,
      "handle": 5046,
      "naturally": 5047,
      "generated": 5048,
      "boring": 5049,
      "keeps": 5050,
      "educational": 5051,
      "painful": 5052,
      "hyper": 5053,
      "explained": 5054,
      "measuring": 5055,
      "distinct": 5056,
      "promis": 5057,
      "spreading": 5058,
      "conflicts": 5059,
      "pushing": 5060,
      "activities": 5061,
      "clip": 5062,
      "arguments": 5063,
      "continued": 5064,
      "philosoph": 5065,
      "frankly": 5066,
      "arctic": 5067,
      "advertising": 5068,
      "nigeria": 5069,
      "regret": 5070,
      "insurance": 5071,
      "phrase": 5072,
      "abstract": 5073,
      "astonishing": 5074,
      "symptoms": 5075,
      "pha": 5076,
      "sis": 5077,
      "sed": 5078,
      "initi": 5079,
      "remove": 5080,
      "refer": 5081,
      "tocin": 5082,
      "orient": 5083,
      "leap": 5084,
      "champ": 5085,
      "likes": 5086,
      "implant": 5087,
      "anta": 5088,
      "odd": 5089,
      "plug": 5090,
      "nobel": 5091,
      "transfer": 5092,
      "careful": 5093,
      "tember": 5094,
      "statement": 5095,
      "feeding": 5096,
      "dropped": 5097,
      "recorded": 5098,
      "religions": 5099,
      "providing": 5100,
      "suffer": 5101,
      "oxytocin": 5102,
      "taste": 5103,
      "adoles": 5104,
      "galaxies": 5105,
      "conclusion": 5106,
      "elimin": 5107,
      "incentives": 5108,
      "pregnant": 5109,
      "occasion": 5110,
      "september": 5111,
      "cence": 5112,
      "hatt": 5113,
      "iam": 5114,
      "ilet": 5115,
      "itors": 5116,
      "tack": 5117,
      "wound": 5118,
      "toilet": 5119,
      "ita": 5120,
      "orches": 5121,
      "stro": 5122,
      "beet": 5123,
      "truck": 5124,
      "usive": 5125,
      "aming": 5126,
      "feature": 5127,
      "frid": 5128,
      "pled": 5129,
      "plom": 5130,
      "grat": 5131,
      "agency": 5132,
      "brush": 5133,
      "wherever": 5134,
      "roots": 5135,
      "phos": 5136,
      "disorder": 5137,
      "partners": 5138,
      "struck": 5139,
      "manhatt": 5140,
      "carol": 5141,
      "corn": 5142,
      "coral": 5143,
      "funded": 5144,
      "athlet": 5145,
      "designs": 5146,
      "relate": 5147,
      "diplom": 5148,
      "younger": 5149,
      "stretch": 5150,
      "signed": 5151,
      "classes": 5152,
      "classic": 5153,
      "missed": 5154,
      "horizon": 5155,
      "performing": 5156,
      "photography": 5157,
      "reached": 5158,
      "furnit": 5159,
      "soft": 5160,
      "songs": 5161,
      "prototype": 5162,
      "surrounded": 5163,
      "required": 5164,
      "whale": 5165,
      "season": 5166,
      "zoom": 5167,
      "egypt": 5168,
      "obsessed": 5169,
      "ignorance": 5170,
      "retire": 5171,
      "heimer": 5172,
      "manhattan": 5173,
      "cers": 5174,
      "gence": 5175,
      "iel": 5176,
      "kick": 5177,
      "nest": 5178,
      "pion": 5179,
      "rating": 5180,
      "rors": 5181,
      "ining": 5182,
      "input": 5183,
      "request": 5184,
      "toy": 5185,
      "assume": 5186,
      "ache": 5187,
      "outcome": 5188,
      "button": 5189,
      "adm": 5190,
      "causing": 5191,
      "plot": 5192,
      "rill": 5193,
      "rence": 5194,
      "spon": 5195,
      "spill": 5196,
      "appo": 5197,
      "guar": 5198,
      "ears": 5199,
      "bias": 5200,
      "breed": 5201,
      "limits": 5202,
      "label": 5203,
      "tested": 5204,
      "ologists": 5205,
      "speaker": 5206,
      "tribe": 5207,
      "deaths": 5208,
      "rub": 5209,
      "citizen": 5210,
      "latest": 5211,
      "efficiency": 5212,
      "engagement": 5213,
      "methods": 5214,
      "nurses": 5215,
      "fingers": 5216,
      "customers": 5217,
      "pipe": 5218,
      "categor": 5219,
      "academic": 5220,
      "conservation": 5221,
      "elder": 5222,
      "furniture": 5223,
      "27": 5224,
      "papers": 5225,
      "zheimer": 5226,
      "alpha": 5227,
      "alzheimer": 5228,
      "iters": 5229,
      "stack": 5230,
      "aband": 5231,
      "trian": 5232,
      "prost": 5233,
      "conven": 5234,
      "ulous": 5235,
      "olar": 5236,
      "agencies": 5237,
      "assist": 5238,
      "strangers": 5239,
      "download": 5240,
      "translate": 5241,
      "curios": 5242,
      "visible": 5243,
      "paras": 5244,
      "banks": 5245,
      "populations": 5246,
      "volume": 5247,
      "depth": 5248,
      "sensors": 5249,
      "touched": 5250,
      "apartment": 5251,
      "strip": 5252,
      "fascinated": 5253,
      "teenagers": 5254,
      "smoke": 5255,
      "historical": 5256,
      "antibiotics": 5257,
      "26": 5258,
      "bage": 5259,
      "gers": 5260,
      "rw": 5261,
      "rose": 5262,
      "wid": 5263,
      "yield": 5264,
      "reform": 5265,
      "oty": 5266,
      "het": 5267,
      "absor": 5268,
      "outcomes": 5269,
      "peter": 5270,
      "terri": 5271,
      "thered": 5272,
      "commod": 5273,
      "iled": 5274,
      "shoc": 5275,
      "igu": 5276,
      "agend": 5277,
      "worker": 5278,
      "clay": 5279,
      "club": 5280,
      "pharm": 5281,
      "herit": 5282,
      "preced": 5283,
      "ucks": 5284,
      "functions": 5285,
      "graphics": 5286,
      "passeng": 5287,
      "connecting": 5288,
      "figures": 5289,
      "hearts": 5290,
      "robotic": 5291,
      "accessible": 5292,
      "summar": 5293,
      "60s": 5294,
      "interactions": 5295,
      "evolutionary": 5296,
      "locked": 5297,
      "offered": 5298,
      "fixed": 5299,
      "icultural": 5300,
      "concepts": 5301,
      "license": 5302,
      "paradig": 5303,
      "refriger": 5304,
      "tribes": 5305,
      "chief": 5306,
      "95": 5307,
      "bid": 5308,
      "dies": 5309,
      "hig": 5310,
      "hans": 5311,
      "ker": 5312,
      "narrow": 5313,
      "ooh": 5314,
      "till": 5315,
      "inform": 5316,
      "thet": 5317,
      "ision": 5318,
      "application": 5319,
      "orders": 5320,
      "sticks": 5321,
      "neut": 5322,
      "dozen": 5323,
      "congo": 5324,
      "nowhere": 5325,
      "cience": 5326,
      "tied": 5327,
      "ela": 5328,
      "poses": 5329,
      "engaging": 5330,
      "invite": 5331,
      "imaging": 5332,
      "curve": 5333,
      "planes": 5334,
      "datab": 5335,
      "drives": 5336,
      "2005": 5337,
      "grams": 5338,
      "cheaper": 5339,
      "amazon": 5340,
      "explos": 5341,
      "deploy": 5342,
      "meetings": 5343,
      "falls": 5344,
      "pursu": 5345,
      "practices": 5346,
      "traveled": 5347,
      "technological": 5348,
      "raising": 5349,
      "linked": 5350,
      "celebrate": 5351,
      "contribute": 5352,
      "selection": 5353,
      "component": 5354,
      "volunteers": 5355,
      "appreciate": 5356,
      "precisely": 5357,
      "satisf": 5358,
      "golf": 5359,
      "rhythm": 5360,
      "embedded": 5361,
      "frozen": 5362,
      "pione": 5363,
      "curiosity": 5364,
      "bost": 5365,
      "cend": 5366,
      "dust": 5367,
      "foss": 5368,
      "jim": 5369,
      "lind": 5370,
      "mone": 5371,
      "pink": 5372,
      "score": 5373,
      "recon": 5374,
      "rema": 5375,
      "reference": 5376,
      "toler": 5377,
      "behave": 5378,
      "lium": 5379,
      "usions": 5380,
      "ambit": 5381,
      "plenty": 5382,
      "okes": 5383,
      "wanting": 5384,
      "clar": 5385,
      "sheet": 5386,
      "happier": 5387,
      "evening": 5388,
      "sian": 5389,
      "afternoon": 5390,
      "mining": 5391,
      "imagined": 5392,
      "transparen": 5393,
      "rail": 5394,
      "joe": 5395,
      "morality": 5396,
      "charity": 5397,
      "drill": 5398,
      "equation": 5399,
      "angeles": 5400,
      "climb": 5401,
      "winning": 5402,
      "existed": 5403,
      "flood": 5404,
      "fishing": 5405,
      "receive": 5406,
      "fortunate": 5407,
      "standards": 5408,
      "surprisingly": 5409,
      "imeter": 5410,
      "elections": 5411,
      "distributed": 5412,
      "occurred": 5413,
      "quarter": 5414,
      "seeds": 5415,
      "clothes": 5416,
      "commitment": 5417,
      "trend": 5418,
      "ingredients": 5419,
      "poorest": 5420,
      "chromos": 5421,
      "higgs": 5422,
      "boston": 5423,
      "transparency": 5424,
      "250": 5425,
      "aes": 5426,
      "dur": 5427,
      "ito": 5428,
      "kar": 5429,
      "vation": 5430,
      "thin": 5431,
      "attribut": 5432,
      "toxic": 5433,
      "icago": 5434,
      "chicago": 5435,
      "quis": 5436,
      "hemis": 5437,
      "trillion": 5438,
      "adminis": 5439,
      "france": 5440,
      "umin": 5441,
      "tight": 5442,
      "inequality": 5443,
      "coach": 5444,
      "william": 5445,
      "bucks": 5446,
      "needle": 5447,
      "compound": 5448,
      "minor": 5449,
      "organize": 5450,
      "50s": 5451,
      "fortune": 5452,
      "glac": 5453,
      "expectations": 5454,
      "combined": 5455,
      "aneously": 5456,
      "hungry": 5457,
      "arabic": 5458,
      "anticip": 5459,
      "inspiring": 5460,
      "dramatically": 5461,
      "captured": 5462,
      "chaos": 5463,
      "exploration": 5464,
      "surgeon": 5465,
      "split": 5466,
      "granted": 5467,
      "achieved": 5468,
      "powers": 5469,
      "piano": 5470,
      "guarante": 5471,
      "bass": 5472,
      "va": 5473,
      "wich": 5474,
      "inject": 5475,
      "reco": 5476,
      "lee": 5477,
      "stations": 5478,
      "beer": 5479,
      "chest": 5480,
      "ida": 5481,
      "unclear": 5482,
      "extent": 5483,
      "grace": 5484,
      "owned": 5485,
      "roy": 5486,
      "crying": 5487,
      "herself": 5488,
      "obst": 5489,
      "lighting": 5490,
      "curren": 5491,
      "economist": 5492,
      "foods": 5493,
      "lake": 5494,
      "classical": 5495,
      "successfully": 5496,
      "increases": 5497,
      "silent": 5498,
      "privacy": 5499,
      "divided": 5500,
      "reported": 5501,
      "printed": 5502,
      "enemy": 5503,
      "optimistic": 5504,
      "copyright": 5505,
      "diabet": 5506,
      "mammo": 5507,
      "neuroscience": 5508,
      "destroyed": 5509,
      "ignore": 5510,
      "apparently": 5511,
      "agreed": 5512,
      "bicycle": 5513,
      "phosph": 5514,
      "remains": 5515,
      "dum": 5516,
      "fare": 5517,
      "pse": 5518,
      "pting": 5519,
      "pons": 5520,
      "rice": 5521,
      "thur": 5522,
      "removed": 5523,
      "eradic": 5524,
      "orange": 5525,
      "youth": 5526,
      "chos": 5527,
      "herent": 5528,
      "verb": 5529,
      "forts": 5530,
      "abund": 5531,
      "opard": 5532,
      "decre": 5533,
      "modif": 5534,
      "shine": 5535,
      "gras": 5536,
      "respons": 5537,
      "fool": 5538,
      "phy": 5539,
      "poly": 5540,
      "ferences": 5541,
      "intent": 5542,
      "oldest": 5543,
      "monkey": 5544,
      "instant": 5545,
      "farmer": 5546,
      "otech": 5547,
      "rising": 5548,
      "musicians": 5549,
      "cheese": 5550,
      "metabol": 5551,
      "speakers": 5552,
      "improvis": 5553,
      "communications": 5554,
      "footprint": 5555,
      "tower": 5556,
      "villages": 5557,
      "amongst": 5558,
      "provided": 5559,
      "clinic": 5560,
      "session": 5561,
      "robust": 5562,
      "instruments": 5563,
      "injury": 5564,
      "aspects": 5565,
      "decline": 5566,
      "vietnam": 5567,
      "extinct": 5568,
      "anxi": 5569,
      "jazz": 5570,
      "anonymous": 5571,
      "obstac": 5572,
      "29": 5573,
      "bones": 5574,
      "dent": 5575,
      "gand": 5576,
      "gory": 5577,
      "nes": 5578,
      "oy": 5579,
      "pit": 5580,
      "vital": 5581,
      "wet": 5582,
      "veter": 5583,
      "bered": 5584,
      "actors": 5585,
      "delive": 5586,
      "unlikely": 5587,
      "peer": 5588,
      "teries": 5589,
      "consume": 5590,
      "excell": 5591,
      "cake": 5592,
      "spinal": 5593,
      "cra": 5594,
      "cros": 5595,
      "award": 5596,
      "biom": 5597,
      "bible": 5598,
      "matically": 5599,
      "lovely": 5600,
      "secondly": 5601,
      "196": 5602,
      "avor": 5603,
      "ctors": 5604,
      "glad": 5605,
      "fathers": 5606,
      "evolve": 5607,
      "depending": 5608,
      "fluid": 5609,
      "distur": 5610,
      "recording": 5611,
      "sandwich": 5612,
      "represented": 5613,
      "properly": 5614,
      "savings": 5615,
      "title": 5616,
      "hackers": 5617,
      "exploring": 5618,
      "laser": 5619,
      "scenar": 5620,
      "elephant": 5621,
      "agenda": 5622,
      "delivered": 5623,
      "bia": 5624,
      "cab": 5625,
      "dir": 5626,
      "dough": 5627,
      "jes": 5628,
      "nick": 5629,
      "uk": 5630,
      "inf": 5631,
      "iny": 5632,
      "anes": 5633,
      "republic": 5634,
      "apo": 5635,
      "lims": 5636,
      "impress": 5637,
      "females": 5638,
      "adjust": 5639,
      "external": 5640,
      "oles": 5641,
      "rescue": 5642,
      "seek": 5643,
      "erson": 5644,
      "bron": 5645,
      "suicide": 5646,
      "coordin": 5647,
      "bull": 5648,
      "strict": 5649,
      "letting": 5650,
      "choos": 5651,
      "underground": 5652,
      "pressing": 5653,
      "colony": 5654,
      "efforts": 5655,
      "instantly": 5656,
      "muslims": 5657,
      "hook": 5658,
      "views": 5659,
      "researcher": 5660,
      "presented": 5661,
      "ferti": 5662,
      "accum": 5663,
      "describes": 5664,
      "floating": 5665,
      "origami": 5666,
      "consumers": 5667,
      "folding": 5668,
      "participants": 5669,
      "debt": 5670,
      "demonstrate": 5671,
      "beliefs": 5672,
      "breathing": 5673,
      "paintings": 5674,
      "cartoons": 5675,
      "scary": 5676,
      "complain": 5677,
      "paraly": 5678,
      "gabby": 5679,
      "proportion": 5680,
      "stroke": 5681,
      "recovery": 5682,
      "chosen": 5683,
      "anxiety": 5684,
      "33": 5685,
      "bust": 5686,
      "bye": 5687,
      "ij": 5688,
      "lly": 5689,
      "lens": 5690,
      "wart": 5691,
      "osis": 5692,
      "quad": 5693,
      "trop": 5694,
      "prince": 5695,
      "excl": 5696,
      "rio": 5697,
      "rip": 5698,
      "essence": 5699,
      "yours": 5700,
      "torture": 5701,
      "sphere": 5702,
      "bless": 5703,
      "thrown": 5704,
      "flour": 5705,
      "finds": 5706,
      "grows": 5707,
      "searching": 5708,
      "friendly": 5709,
      "delic": 5710,
      "password": 5711,
      "2006": 5712,
      "burst": 5713,
      "failing": 5714,
      "sensory": 5715,
      "drawn": 5716,
      "football": 5717,
      "silicon": 5718,
      "combat": 5719,
      "measured": 5720,
      "calculate": 5721,
      "affordable": 5722,
      "contains": 5723,
      "microscope": 5724,
      "cooperation": 5725,
      "prepare": 5726,
      "senior": 5727,
      "shifting": 5728,
      "refuge": 5729,
      "attached": 5730,
      "sculpture": 5731,
      "dinosaurs": 5732,
      "permanent": 5733,
      "appoint": 5734,
      "rwanda": 5735,
      "administr": 5736,
      "28": 5737,
      "800": 5738,
      "dung": 5739,
      "density": 5740,
      "lou": 5741,
      "rod": 5742,
      "tank": 5743,
      "ull": 5744,
      "inch": 5745,
      "returned": 5746,
      "enable": 5747,
      "alco": 5748,
      "orus": 5749,
      "oft": 5750,
      "aside": 5751,
      "ota": 5752,
      "sty": 5753,
      "stun": 5754,
      "bears": 5755,
      "chat": 5756,
      "meal": 5757,
      "degrad": 5758,
      "units": 5759,
      "loves": 5760,
      "agon": 5761,
      "reson": 5762,
      "tali": 5763,
      "logic": 5764,
      "posing": 5765,
      "county": 5766,
      "drone": 5767,
      "drones": 5768,
      "carried": 5769,
      "marg": 5770,
      "committed": 5771,
      "flor": 5772,
      "inven": 5773,
      "imagery": 5774,
      "contract": 5775,
      "ugly": 5776,
      "miser": 5777,
      "supp": 5778,
      "graphy": 5779,
      "identified": 5780,
      "musician": 5781,
      "presentation": 5782,
      "collaps": 5783,
      "balloon": 5784,
      "distant": 5785,
      "protecting": 5786,
      "architects": 5787,
      "worthy": 5788,
      "slides": 5789,
      "synthetic": 5790,
      "improvement": 5791,
      "budd": 5792,
      "struggling": 5793,
      "halluc": 5794,
      "baseball": 5795,
      "hello": 5796,
      "fires": 5797,
      "boundaries": 5798,
      "federal": 5799,
      "paralle": 5800,
      "electronics": 5801,
      "aristo": 5802,
      "comedy": 5803,
      "explanation": 5804,
      "criminals": 5805,
      "restore": 5806,
      "paradigm": 5807,
      "alcohol": 5808,
      "dign": 5809,
      "eu": 5810,
      "glow": 5811,
      "ias": 5812,
      "jaw": 5813,
      "lone": 5814,
      "nom": 5815,
      "oven": 5816,
      "soup": 5817,
      "isa": 5818,
      "enn": 5819,
      "armed": 5820,
      "stal": 5821,
      "seal": 5822,
      "abs": 5823,
      "abuse": 5824,
      "features": 5825,
      "tears": 5826,
      "ulum": 5827,
      "aggress": 5828,
      "spider": 5829,
      "crops": 5830,
      "marine": 5831,
      "afterwards": 5832,
      "personality": 5833,
      "2011": 5834,
      "capita": 5835,
      "incident": 5836,
      "educated": 5837,
      "electronic": 5838,
      "angible": 5839,
      "labs": 5840,
      "queen": 5841,
      "expectancy": 5842,
      "richer": 5843,
      "involves": 5844,
      "silver": 5845,
      "recognition": 5846,
      "interacting": 5847,
      "ission": 5848,
      "sales": 5849,
      "palm": 5850,
      "policies": 5851,
      "confident": 5852,
      "schiz": 5853,
      "separated": 5854,
      "tasks": 5855,
      "flew": 5856,
      "resistant": 5857,
      "lux": 5858,
      "neighborhoods": 5859,
      "motivation": 5860,
      "trends": 5861,
      "mushroom": 5862,
      "vessels": 5863,
      "ridiculous": 5864,
      "shocking": 5865,
      "fossil": 5866,
      "cot": 5867,
      "hob": 5868,
      "lit": 5869,
      "lamp": 5870,
      "mice": 5871,
      "ogue": 5872,
      "pti": 5873,
      "piz": 5874,
      "tong": 5875,
      "inves": 5876,
      "theless": 5877,
      "replic": 5878,
      "escape": 5879,
      "stages": 5880,
      "sey": 5881,
      "trash": 5882,
      "depressed": 5883,
      "lored": 5884,
      "exe": 5885,
      "suck": 5886,
      "fox": 5887,
      "crop": 5888,
      "overcome": 5889,
      "creature": 5890,
      "virgin": 5891,
      "lecture": 5892,
      "autom": 5893,
      "organism": 5894,
      "adding": 5895,
      "laid": 5896,
      "2003": 5897,
      "2004": 5898,
      "interestingly": 5899,
      "30s": 5900,
      "tony": 5901,
      "intrigu": 5902,
      "sleeping": 5903,
      "recognized": 5904,
      "produces": 5905,
      "emergency": 5906,
      "predictable": 5907,
      "activist": 5908,
      "covering": 5909,
      "crucial": 5910,
      "characteristics": 5911,
      "nutri": 5912,
      "controlling": 5913,
      "agricultural": 5914,
      "physicist": 5915,
      "psychopath": 5916,
      "automatically": 5917,
      "pacific": 5918,
      "resilience": 5919,
      "saharan": 5920,
      "stereoty": 5921,
      "cig": 5922,
      "dive": 5923,
      "june": 5924,
      "kin": 5925,
      "tast": 5926,
      "vy": 5927,
      "reha": 5928,
      "recomm": 5929,
      "ato": 5930,
      "atar": 5931,
      "acies": 5932,
      "entered": 5933,
      "lift": 5934,
      "opens": 5935,
      "delight": 5936,
      "printer": 5937,
      "uncomfortable": 5938,
      "uncertainty": 5939,
      "iment": 5940,
      "ifice": 5941,
      "nowad": 5942,
      "ours": 5943,
      "pla": 5944,
      "ria": 5945,
      "estic": 5946,
      "agger": 5947,
      "tired": 5948,
      "answered": 5949,
      "ensure": 5950,
      "genius": 5951,
      "hier": 5952,
      "invas": 5953,
      "tedx": 5954,
      "founded": 5955,
      "matri": 5956,
      "vene": 5957,
      "visited": 5958,
      "parli": 5959,
      "capes": 5960,
      "muscles": 5961,
      "subtle": 5962,
      "diver": 5963,
      "diverse": 5964,
      "dioxide": 5965,
      "productivity": 5966,
      "photographer": 5967,
      "plicity": 5968,
      "continues": 5969,
      "explaining": 5970,
      "improved": 5971,
      "impacts": 5972,
      "directions": 5973,
      "chairs": 5974,
      "shopping": 5975,
      "lifes": 5976,
      "glasses": 5977,
      "liberal": 5978,
      "psychiat": 5979,
      "picking": 5980,
      "psychological": 5981,
      "pyram": 5982,
      "wireless": 5983,
      "philosopher": 5984,
      "dominant": 5985,
      "strategies": 5986,
      "lawyers": 5987,
      "dolphins": 5988,
      "barely": 5989,
      "district": 5990,
      "hemisp": 5991,
      "diabetes": 5992,
      "phosphorus": 5993,
      "crossing": 5994,
      "nowadays": 5995,
      "cens": 5996,
      "cute": 5997,
      "rage": 5998,
      "uity": 5999,
      "wand": 6000,
      "ino": 6001,
      "renew": 6002,
      "ende": 6003,
      "itim": 6004,
      "oran": 6005,
      "vey": 6006,
      "acing": 6007,
      "kee": 6008,
      "neural": 6009,
      "trag": 6010,
      "defe": 6011,
      "prices": 6012,
      "unbeliev": 6013,
      "ague": 6014,
      "howard": 6015,
      "wheat": 6016,
      "astics": 6017,
      "marath": 6018,
      "awk": 6019,
      "shoulder": 6020,
      "archy": 6021,
      "curric": 6022,
      "195": 6023,
      "homeless": 6024,
      "hardly": 6025,
      "publish": 6026,
      "openness": 6027,
      "passing": 6028,
      "glob": 6029,
      "operations": 6030,
      "drivers": 6031,
      "legitim": 6032,
      "stops": 6033,
      "painted": 6034,
      "equality": 6035,
      "controls": 6036,
      "filter": 6037,
      "keyboard": 6038,
      "accidents": 6039,
      "purch": 6040,
      "sensor": 6041,
      "yorker": 6042,
      "staying": 6043,
      "promot": 6044,
      "closing": 6045,
      "filling": 6046,
      "predictions": 6047,
      "provides": 6048,
      "texting": 6049,
      "sweat": 6050,
      "agreement": 6051,
      "virtually": 6052,
      "links": 6053,
      "mixed": 6054,
      "drinking": 6055,
      "rarely": 6056,
      "repeat": 6057,
      "repeated": 6058,
      "determined": 6059,
      "estimate": 6060,
      "assembly": 6061,
      "quantum": 6062,
      "geographic": 6063,
      "stanford": 6064,
      "henry": 6065,
      "gonna": 6066,
      "jihad": 6067,
      "bars": 6068,
      "cash": 6069,
      "ell": 6070,
      "gif": 6071,
      "jet": 6072,
      "sar": 6073,
      "andem": 6074,
      "encounter": 6075,
      "lean": 6076,
      "icel": 6077,
      "heal": 6078,
      "iders": 6079,
      "opa": 6080,
      "tras": 6081,
      "traged": 6082,
      "tricks": 6083,
      "ceiling": 6084,
      "amed": 6085,
      "mode": 6086,
      "ultra": 6087,
      "persu": 6088,
      "ups": 6089,
      "sage": 6090,
      "bra": 6091,
      "eman": 6092,
      "bob": 6093,
      "phili": 6094,
      "reef": 6095,
      "udes": 6096,
      "blank": 6097,
      "prem": 6098,
      "mayor": 6099,
      "awn": 6100,
      "stores": 6101,
      "helic": 6102,
      "parado": 6103,
      "sett": 6104,
      "governance": 6105,
      "figuring": 6106,
      "killer": 6107,
      "brian": 6108,
      "statist": 6109,
      "ethnic": 6110,
      "bai": 6111,
      "ophren": 6112,
      "nucle": 6113,
      "colleague": 6114,
      "translation": 6115,
      "assumptions": 6116,
      "tunnel": 6117,
      "cambridge": 6118,
      "manufacture": 6119,
      "demonstration": 6120,
      "vegetables": 6121,
      "adventure": 6122,
      "korea": 6123,
      "elderly": 6124,
      "schizophren": 6125,
      "execut": 6126,
      "parliament": 6127,
      "globally": 6128,
      "paradox": 6129,
      "48": 6130,
      "glim": 6131,
      "hitting": 6132,
      "ires": 6133,
      "jose": 6134,
      "ode": 6135,
      "rats": 6136,
      "sac": 6137,
      "sla": 6138,
      "sket": 6139,
      "zan": 6140,
      "zens": 6141,
      "thumb": 6142,
      "inson": 6143,
      "inhabit": 6144,
      "remem": 6145,
      "ert": 6146,
      "assets": 6147,
      "outer": 6148,
      "trucks": 6149,
      "dear": 6150,
      "pets": 6151,
      "adop": 6152,
      "antarct": 6153,
      "exposed": 6154,
      "plastics": 6155,
      "shirt": 6156,
      "yemen": 6157,
      "reduced": 6158,
      "rolling": 6159,
      "disappeared": 6160,
      "assess": 6161,
      "poster": 6162,
      "uces": 6163,
      "drum": 6164,
      "writers": 6165,
      "simplicity": 6166,
      "headed": 6167,
      "borrow": 6168,
      "viewer": 6169,
      "globalization": 6170,
      "burden": 6171,
      "typing": 6172,
      "supported": 6173,
      "strongly": 6174,
      "suggesting": 6175,
      "darkness": 6176,
      "consciously": 6177,
      "spectac": 6178,
      "detailed": 6179,
      "ghana": 6180,
      "collaborative": 6181,
      "defend": 6182,
      "prosthetic": 6183,
      "rays": 6184,
      "persist": 6185,
      "nurse": 6186,
      "tasman": 6187,
      "laughing": 6188,
      "immun": 6189,
      "quarters": 6190,
      "academy": 6191,
      "insights": 6192,
      "neuroscient": 6193,
      "gathering": 6194,
      "instructions": 6195,
      "scott": 6196,
      "professionals": 6197,
      "sacrifice": 6198,
      "inevitable": 6199,
      "pizza": 6200,
      "helicop": 6201,
      "antarctica": 6202,
      "700": 6203,
      "kiss": 6204,
      "lions": 6205,
      "mum": 6206,
      "oo": 6207,
      "sin": 6208,
      "sink": 6209,
      "sits": 6210,
      "ubi": 6211,
      "ws": 6212,
      "anze": 6213,
      "onstage": 6214,
      "tos": 6215,
      "chor": 6216,
      "neat": 6217,
      "febr": 6218,
      "fruit": 6219,
      "odds": 6220,
      "shed": 6221,
      "nois": 6222,
      "sauce": 6223,
      "restor": 6224,
      "reduction": 6225,
      "parties": 6226,
      "underlying": 6227,
      "marks": 6228,
      "sciences": 6229,
      "mines": 6230,
      "visions": 6231,
      "relax": 6232,
      "healthier": 6233,
      "limb": 6234,
      "settle": 6235,
      "skull": 6236,
      "probability": 6237,
      "begun": 6238,
      "profits": 6239,
      "legisl": 6240,
      "elsewhere": 6241,
      "facility": 6242,
      "leather": 6243,
      "robotics": 6244,
      "programming": 6245,
      "magical": 6246,
      "innocent": 6247,
      "sentences": 6248,
      "fastest": 6249,
      "analog": 6250,
      "affects": 6251,
      "telephone": 6252,
      "secrets": 6253,
      "hunting": 6254,
      "pushed": 6255,
      "activate": 6256,
      "christian": 6257,
      "suspect": 6258,
      "influenced": 6259,
      "scanner": 6260,
      "israeli": 6261,
      "optimism": 6262,
      "integrated": 6263,
      "habitat": 6264,
      "compelling": 6265,
      "drove": 6266,
      "egg": 6267,
      "bags": 6268,
      "category": 6269,
      "route": 6270,
      "frequency": 6271,
      "dialogue": 6272,
      "qualities": 6273,
      "scores": 6274,
      "frustrated": 6275,
      "knock": 6276,
      "initial": 6277,
      "ownership": 6278,
      "chimpanze": 6279,
      "entropy": 6280,
      "dedicated": 6281,
      "precedent": 6282,
      "passenger": 6283,
      "dignity": 6284,
      "awkward": 6285,
      "february": 6286,
      "120": 6287,
      "85": 6288,
      "bure": 6289,
      "cd": 6290,
      "hr": 6291,
      "iac": 6292,
      "lun": 6293,
      "naked": 6294,
      "pile": 6295,
      "vity": 6296,
      "inherent": 6297,
      "retr": 6298,
      "recru": 6299,
      "oning": 6300,
      "ongoing": 6301,
      "toys": 6302,
      "stab": 6303,
      "icit": 6304,
      "icient": 6305,
      "forgotten": 6306,
      "output": 6307,
      "mood": 6308,
      "articles": 6309,
      "cafe": 6310,
      "reducing": 6311,
      "spots": 6312,
      "chances": 6313,
      "obli": 6314,
      "simp": 6315,
      "smiling": 6316,
      "transparent": 6317,
      "muscle": 6318,
      "attitude": 6319,
      "1970s": 6320,
      "legacy": 6321,
      "responding": 6322,
      "steal": 6323,
      "damn": 6324,
      "sunday": 6325,
      "industries": 6326,
      "eaten": 6327,
      "improving": 6328,
      "domestic": 6329,
      "copes": 6330,
      "defining": 6331,
      "footage": 6332,
      "silly": 6333,
      "photographed": 6334,
      "breakthrough": 6335,
      "oxford": 6336,
      "suggested": 6337,
      "ethical": 6338,
      "philanthrop": 6339,
      "slip": 6340,
      "genetically": 6341,
      "layers": 6342,
      "located": 6343,
      "delivery": 6344,
      "luckily": 6345,
      "packed": 6346,
      "focusing": 6347,
      "arrive": 6348,
      "physician": 6349,
      "historic": 6350,
      "microsoft": 6351,
      "attractive": 6352,
      "shelf": 6353,
      "colonies": 6354,
      "revenue": 6355,
      "privilege": 6356,
      "portrait": 6357,
      "suspended": 6358,
      "prosperity": 6359,
      "retirement": 6360,
      "currency": 6361,
      "dirty": 6362,
      "refugees": 6363,
      "parallel": 6364,
      "cigaret": 6365,
      "curriculum": 6366,
      "32": 6367,
      "aer": 6368,
      "cree": 6369,
      "dor": 6370,
      "dose": 6371,
      "hire": 6372,
      "ja": 6373,
      "jos": 6374,
      "kins": 6375,
      "koran": 6376,
      "ogy": 6377,
      "smar": 6378,
      "tick": 6379,
      "wings": 6380,
      "wider": 6381,
      "anatom": 6382,
      "recess": 6383,
      "rebuild": 6384,
      "tox": 6385,
      "chop": 6386,
      "lihood": 6387,
      "utical": 6388,
      "abra": 6389,
      "neo": 6390,
      "uncle": 6391,
      "confront": 6392,
      "maxim": 6393,
      "agent": 6394,
      "brut": 6395,
      "coca": 6396,
      "spark": 6397,
      "distract": 6398,
      "formula": 6399,
      "backwards": 6400,
      "syl": 6401,
      "positions": 6402,
      "basket": 6403,
      "pulling": 6404,
      "viral": 6405,
      "captain": 6406,
      "tooth": 6407,
      "insul": 6408,
      "warning": 6409,
      "burg": 6410,
      "trains": 6411,
      "universities": 6412,
      "grandparents": 6413,
      "circul": 6414,
      "experimental": 6415,
      "ancestors": 6416,
      "specialized": 6417,
      "brook": 6418,
      "tubes": 6419,
      "expressions": 6420,
      "includes": 6421,
      "targets": 6422,
      "representation": 6423,
      "genetics": 6424,
      "soldier": 6425,
      "judgment": 6426,
      "concern": 6427,
      "clients": 6428,
      "infection": 6429,
      "russian": 6430,
      "kyo": 6431,
      "accepted": 6432,
      "breaks": 6433,
      "translated": 6434,
      "microbes": 6435,
      "conservative": 6436,
      "additional": 6437,
      "shooting": 6438,
      "restaurants": 6439,
      "originally": 6440,
      "hypothesis": 6441,
      "perceive": 6442,
      "dressed": 6443,
      "refugee": 6444,
      "lawyer": 6445,
      "autonomous": 6446,
      "infinite": 6447,
      "orchestra": 6448,
      "categories": 6449,
      "choosing": 6450,
      "taliban": 6451,
      "investors": 6452,
      "matrix": 6453,
      "keepers": 6454,
      "smarter": 6455,
      "biz": 6456,
      "boss": 6457,
      "fits": 6458,
      "pump": 6459,
      "rab": 6460,
      "sque": 6461,
      "skept": 6462,
      "independence": 6463,
      "resolution": 6464,
      "enables": 6465,
      "arre": 6466,
      "beij": 6467,
      "goli": 6468,
      "caf": 6469,
      "shit": 6470,
      "upload": 6471,
      "ressing": 6472,
      "illust": 6473,
      "suffe": 6474,
      "phan": 6475,
      "tale": 6476,
      "disorders": 6477,
      "poison": 6478,
      "forming": 6479,
      "preh": 6480,
      "transmit": 6481,
      "helpful": 6482,
      "mature": 6483,
      "traits": 6484,
      "cycles": 6485,
      "insane": 6486,
      "nerve": 6487,
      "headlines": 6488,
      "pretend": 6489,
      "fuels": 6490,
      "harness": 6491,
      "impul": 6492,
      "neuron": 6493,
      "excite": 6494,
      "grandchildren": 6495,
      "objective": 6496,
      "domain": 6497,
      "breakfast": 6498,
      "unemp": 6499,
      "campus": 6500,
      "promote": 6501,
      "peaceful": 6502,
      "panel": 6503,
      "array": 6504,
      "arrange": 6505,
      "pause": 6506,
      "confused": 6507,
      "mobility": 6508,
      "pointing": 6509,
      "shops": 6510,
      "scholar": 6511,
      "biologists": 6512,
      "immediate": 6513,
      "documents": 6514,
      "inspire": 6515,
      "association": 6516,
      "catastr": 6517,
      "smooth": 6518,
      "garage": 6519,
      "remained": 6520,
      "pleasant": 6521,
      "analyze": 6522,
      "algorithm": 6523,
      "penguin": 6524,
      "reminded": 6525,
      "diagnosis": 6526,
      "terrorism": 6527,
      "circuits": 6528,
      "waters": 6529,
      "miracle": 6530,
      "spanish": 6531,
      "december": 6532,
      "items": 6533,
      "magnetic": 6534,
      "precious": 6535,
      "miserable": 6536,
      "beijing": 6537,
      "unemploy": 6538,
      "bind": 6539,
      "fg": 6540,
      "fred": 6541,
      "fought": 6542,
      "fib": 6543,
      "gig": 6544,
      "hir": 6545,
      "jef": 6546,
      "pandem": 6547,
      "tam": 6548,
      "tissues": 6549,
      "thor": 6550,
      "anas": 6551,
      "anno": 6552,
      "edition": 6553,
      "edges": 6554,
      "stig": 6555,
      "lywood": 6556,
      "merely": 6557,
      "healing": 6558,
      "idi": 6559,
      "opol": 6560,
      "opposed": 6561,
      "neander": 6562,
      "dood": 6563,
      "ceo": 6564,
      "ambig": 6565,
      "convert": 6566,
      "exual": 6567,
      "extension": 6568,
      "umes": 6569,
      "tile": 6570,
      "render": 6571,
      "sheets": 6572,
      "phony": 6573,
      "firing": 6574,
      "strand": 6575,
      "blame": 6576,
      "guer": 6577,
      "berry": 6578,
      "spell": 6579,
      "managers": 6580,
      "offices": 6581,
      "turkey": 6582,
      "engines": 6583,
      "earn": 6584,
      "funds": 6585,
      "biotech": 6586,
      "caps": 6587,
      "insist": 6588,
      "eleg": 6589,
      "uganda": 6590,
      "2001": 6591,
      "facilities": 6592,
      "frontal": 6593,
      "audio": 6594,
      "devil": 6595,
      "engineered": 6596,
      "mingly": 6597,
      "difficulty": 6598,
      "pursuit": 6599,
      "nonprofit": 6600,
      "involve": 6601,
      "woke": 6602,
      "gradually": 6603,
      "index": 6604,
      "recep": 6605,
      "emerge": 6606,
      "medicines": 6607,
      "primarily": 6608,
      "iranian": 6609,
      "sharp": 6610,
      "pige": 6611,
      "weapon": 6612,
      "proposed": 6613,
      "hanging": 6614,
      "routine": 6615,
      "chips": 6616,
      "blowing": 6617,
      "substance": 6618,
      "flexible": 6619,
      "procedure": 6620,
      "palestin": 6621,
      "sisters": 6622,
      "occasionally": 6623,
      "jesus": 6624,
      "paralyzed": 6625,
      "florida": 6626,
      "tongue": 6627,
      "remembered": 6628,
      "bureau": 6629,
      "suffered": 6630,
      "gaz": 6631,
      "lac": 6632,
      "mals": 6633,
      "nodes": 6634,
      "punch": 6635,
      "rang": 6636,
      "tone": 6637,
      "tical": 6638,
      "uous": 6639,
      "wright": 6640,
      "repor": 6641,
      "onia": 6642,
      "aland": 6643,
      "alien": 6644,
      "aspir": 6645,
      "leaf": 6646,
      "whis": 6647,
      "beating": 6648,
      "soever": 6649,
      "soviet": 6650,
      "quir": 6651,
      "mex": 6652,
      "haw": 6653,
      "gear": 6654,
      "dozens": 6655,
      "deaf": 6656,
      "unprecedent": 6657,
      "imper": 6658,
      "whatsoever": 6659,
      "compreh": 6660,
      "cath": 6661,
      "cathe": 6662,
      "iveness": 6663,
      "donor": 6664,
      "aceutical": 6665,
      "twenty": 6666,
      "mud": 6667,
      "differenti": 6668,
      "gotta": 6669,
      "choir": 6670,
      "manager": 6671,
      "intervention": 6672,
      "caring": 6673,
      "cert": 6674,
      "traum": 6675,
      "landed": 6676,
      "august": 6677,
      "completed": 6678,
      "generous": 6679,
      "shipping": 6680,
      "expans": 6681,
      "opera": 6682,
      "regime": 6683,
      "factories": 6684,
      "harbor": 6685,
      "octo": 6686,
      "occo": 6687,
      "daniel": 6688,
      "emphas": 6689,
      "bene": 6690,
      "democrat": 6691,
      "iences": 6692,
      "drawings": 6693,
      "personalized": 6694,
      "boards": 6695,
      "nik": 6696,
      "rainforest": 6697,
      "pollin": 6698,
      "mechanisms": 6699,
      "syndr": 6700,
      "daughters": 6701,
      "straightforward": 6702,
      "broadcast": 6703,
      "wealthy": 6704,
      "bubbles": 6705,
      "conclude": 6706,
      "voting": 6707,
      "previously": 6708,
      "terrifying": 6709,
      "heaven": 6710,
      "retina": 6711,
      "isolated": 6712,
      "fragile": 6713,
      "briefly": 6714,
      "observation": 6715,
      "preserve": 6716,
      "announced": 6717,
      "preparing": 6718,
      "pharmaceutical": 6719,
      "excellent": 6720,
      "rehabil": 6721,
      "hemisphere": 6722,
      "spectacular": 6723,
      "ubiquit": 6724,
      "bizarre": 6725,
      "unprecedented": 6726,
      "31": 6727,
      "dv": 6728,
      "dal": 6729,
      "dip": 6730,
      "duck": 6731,
      "ek": 6732,
      "fos": 6733,
      "mics": 6734,
      "nap": 6735,
      "pip": 6736,
      "ske": 6737,
      "uh": 6738,
      "threw": 6739,
      "inches": 6740,
      "rein": 6741,
      "recover": 6742,
      "arthur": 6743,
      "eda": 6744,
      "stability": 6745,
      "meg": 6746,
      "meals": 6747,
      "habits": 6748,
      "abul": 6749,
      "outs": 6750,
      "ife": 6751,
      "amate": 6752,
      "percept": 6753,
      "shy": 6754,
      "bored": 6755,
      "disabled": 6756,
      "logist": 6757,
      "possess": 6758,
      "observe": 6759,
      "dra": 6760,
      "ishment": 6761,
      "commission": 6762,
      "favel": 6763,
      "fined": 6764,
      "calories": 6765,
      "mindset": 6766,
      "homework": 6767,
      "norway": 6768,
      "ugal": 6769,
      "valid": 6770,
      "delay": 6771,
      "hua": 6772,
      "freely": 6773,
      "hormon": 6774,
      "hormone": 6775,
      "reliable": 6776,
      "performed": 6777,
      "silk": 6778,
      "description": 6779,
      "posted": 6780,
      "jec": 6781,
      "panels": 6782,
      "besides": 6783,
      "widely": 6784,
      "folds": 6785,
      "constructed": 6786,
      "texas": 6787,
      "clinics": 6788,
      "arguing": 6789,
      "elected": 6790,
      "ville": 6791,
      "hiding": 6792,
      "capitalism": 6793,
      "garbage": 6794,
      "honestly": 6795,
      "throwing": 6796,
      "claims": 6797,
      "remaining": 6798,
      "intuition": 6799,
      "expanding": 6800,
      "psychologist": 6801,
      "fabulous": 6802,
      "mammals": 6803,
      "newspapers": 6804,
      "vascular": 6805,
      "accounts": 6806,
      "thirds": 6807,
      "tweet": 6808,
      "bottles": 6809,
      "friday": 6810,
      "prostate": 6811,
      "responses": 6812,
      "marathon": 6813,
      "tragedy": 6814,
      "sacred": 6815,
      "october": 6816,
      "beneath": 6817,
      "ubiquitous": 6818,
      "amateur": 6819,
      "55": 6820,
      "bam": 6821,
      "bite": 6822,
      "cro": 6823,
      "dated": 6824,
      "mapping": 6825,
      "odo": 6826,
      "ogen": 6827,
      "tune": 6828,
      "theore": 6829,
      "ream": 6830,
      "resh": 6831,
      "reminds": 6832,
      "onaut": 6833,
      "altit": 6834,
      "lego": 6835,
      "leban": 6836,
      "static": 6837,
      "acid": 6838,
      "cham": 6839,
      "tray": 6840,
      "iro": 6841,
      "gods": 6842,
      "pep": 6843,
      "usal": 6844,
      "terrain": 6845,
      "worm": 6846,
      "ultras": 6847,
      "mainst": 6848,
      "ola": 6849,
      "seeking": 6850,
      "bris": 6851,
      "brave": 6852,
      "wheels": 6853,
      "coke": 6854,
      "elly": 6855,
      "elite": 6856,
      "crows": 6857,
      "disappoint": 6858,
      "partly": 6859,
      "aft": 6860,
      "despair": 6861,
      "speaks": 6862,
      "council": 6863,
      "realistic": 6864,
      "realizing": 6865,
      "carri": 6866,
      "intensive": 6867,
      "flaw": 6868,
      "simult": 6869,
      "mini": 6870,
      "transcend": 6871,
      "aircraft": 6872,
      "contrary": 6873,
      "cyrus": 6874,
      "cylind": 6875,
      "mentor": 6876,
      "linear": 6877,
      "hardware": 6878,
      "charming": 6879,
      "charlie": 6880,
      "diam": 6881,
      "labe": 6882,
      "prisons": 6883,
      "bedroom": 6884,
      "empire": 6885,
      "stewart": 6886,
      "millen": 6887,
      "shore": 6888,
      "circles": 6889,
      "ordinarily": 6890,
      "supporting": 6891,
      "slums": 6892,
      "nearby": 6893,
      "smartphone": 6894,
      "diving": 6895,
      "emerged": 6896,
      "authors": 6897,
      "predicted": 6898,
      "mandela": 6899,
      "deliber": 6900,
      "prisoners": 6901,
      "threatened": 6902,
      "vertical": 6903,
      "believes": 6904,
      "catal": 6905,
      "smoking": 6906,
      "officer": 6907,
      "fiber": 6908,
      "profoundly": 6909,
      "dynamics": 6910,
      "puzzles": 6911,
      "shelter": 6912,
      "ecosystems": 6913,
      "storm": 6914,
      "ignored": 6915,
      "mosquitos": 6916,
      "discipline": 6917,
      "candidate": 6918,
      "fisher": 6919,
      "stairs": 6920,
      "comparison": 6921,
      "athletes": 6922,
      "database": 6923,
      "scenario": 6924,
      "fertiliz": 6925,
      "collapsed": 6926,
      "insulin": 6927,
      "illustrate": 6928,
      "syndrome": 6929,
      "36": 6930,
      "bak": 6931,
      "lum": 6932,
      "qa": 6933,
      "rome": 6934,
      "tz": 6935,
      "tact": 6936,
      "uel": 6937,
      "wrest": 6938,
      "reck": 6939,
      "errors": 6940,
      "enlight": 6941,
      "encing": 6942,
      "apor": 6943,
      "eday": 6944,
      "lian": 6945,
      "verbal": 6946,
      "geome": 6947,
      "neck": 6948,
      "unable": 6949,
      "imes": 6950,
      "usage": 6951,
      "butter": 6952,
      "contemporary": 6953,
      "urge": 6954,
      "myce": 6955,
      "comments": 6956,
      "compromise": 6957,
      "perm": 6958,
      "shir": 6959,
      "indones": 6960,
      "covers": 6961,
      "boo": 6962,
      "crush": 6963,
      "disrupt": 6964,
      "ension": 6965,
      "leton": 6966,
      "restim": 6967,
      "interconnected": 6968,
      "intended": 6969,
      "turing": 6970,
      "wrap": 6971,
      "fault": 6972,
      "storytelling": 6973,
      "kidney": 6974,
      "2050": 6975,
      "shakes": 6976,
      "1990s": 6977,
      "holy": 6978,
      "lanes": 6979,
      "denial": 6980,
      "laure": 6981,
      "profile": 6982,
      "responds": 6983,
      "hybrid": 6984,
      "nights": 6985,
      "angered": 6986,
      "treatments": 6987,
      "sexy": 6988,
      "excuse": 6989,
      "winner": 6990,
      "tends": 6991,
      "gorge": 6992,
      "jewish": 6993,
      "flowing": 6994,
      "divor": 6995,
      "division": 6996,
      "experiencing": 6997,
      "exception": 6998,
      "concert": 6999,
      "dimension": 7000,
      "hollywood": 7001,
      "threats": 7002,
      "biologist": 7003,
      "crimes": 7004,
      "mathematic": 7005,
      "variation": 7006,
      "competitive": 7007,
      "immigr": 7008,
      "surrounding": 7009,
      "corporations": 7010,
      "paste": 7011,
      "ratio": 7012,
      "dictionaries": 7013,
      "kilo": 7014,
      "script": 7015,
      "thylac": 7016,
      "someday": 7017,
      "initially": 7018,
      "wedding": 7019,
      "navigate": 7020,
      "ceremony": 7021,
      "rituals": 7022,
      "column": 7023,
      "devastating": 7024,
      "atlantic": 7025,
      "heritage": 7026,
      "glacier": 7027,
      "guarantee": 7028,
      "philip": 7029,
      "schizophrenia": 7030,
      "excitement": 7031,
      "37": 7032,
      "aa": 7033,
      "bac": 7034,
      "dop": 7035,
      "junk": 7036,
      "jelly": 7037,
      "nu": 7038,
      "nis": 7039,
      "pants": 7040,
      "sche": 7041,
      "andrew": 7042,
      "enthus": 7043,
      "ingen": 7044,
      "asle": 7045,
      "leon": 7046,
      "chile": 7047,
      "haz": 7048,
      "ares": 7049,
      "triv": 7050,
      "detro": 7051,
      "lob": 7052,
      "cel": 7053,
      "ams": 7054,
      "fet": 7055,
      "cano": 7056,
      "ador": 7057,
      "fried": 7058,
      "olic": 7059,
      "artistic": 7060,
      "ounce": 7061,
      "pling": 7062,
      "rivers": 7063,
      "oking": 7064,
      "safer": 7065,
      "grave": 7066,
      "embod": 7067,
      "colored": 7068,
      "rolled": 7069,
      "rocks": 7070,
      "twist": 7071,
      "happily": 7072,
      "backyard": 7073,
      "genu": 7074,
      "manual": 7075,
      "mary": 7076,
      "marry": 7077,
      "sons": 7078,
      "icked": 7079,
      "surfaces": 7080,
      "socially": 7081,
      "stored": 7082,
      "monkeys": 7083,
      "meanwhile": 7084,
      "highway": 7085,
      "mato": 7086,
      "augment": 7087,
      "attend": 7088,
      "hometown": 7089,
      "norden": 7090,
      "contag": 7091,
      "subs": 7092,
      "subway": 7093,
      "passes": 7094,
      "italy": 7095,
      "structural": 7096,
      "buried": 7097,
      "burned": 7098,
      "swiss": 7099,
      "listened": 7100,
      "radically": 7101,
      "potato": 7102,
      "winds": 7103,
      "democracies": 7104,
      "innovations": 7105,
      "fallen": 7106,
      "marker": 7107,
      "climbing": 7108,
      "investing": 7109,
      "approxim": 7110,
      "tendency": 7111,
      "ticket": 7112,
      "architectural": 7113,
      "dropping": 7114,
      "hopes": 7115,
      "sections": 7116,
      "wildlife": 7117,
      "significantly": 7118,
      "continuing": 7119,
      "demands": 7120,
      "compete": 7121,
      "guns": 7122,
      "candy": 7123,
      "reveals": 7124,
      "consequence": 7125,
      "diagram": 7126,
      "psychologists": 7127,
      "volunteer": 7128,
      "surgeons": 7129,
      "expertise": 7130,
      "torian": 7131,
      "perceived": 7132,
      "mushrooms": 7133,
      "exhibition": 7134,
      "regardless": 7135,
      "shrimp": 7136,
      "lord": 7137,
      "barrier": 7138,
      "arrested": 7139,
      "controversi": 7140,
      "chapter": 7141,
      "cousin": 7142,
      "champion": 7143,
      "tackle": 7144,
      "spont": 7145,
      "obstacles": 7146,
      "gandhi": 7147,
      "aristotle": 7148,
      "tragic": 7149,
      "iceland": 7150,
      "jeff": 7151,
      "opolit": 7152,
      "guerrill": 7153,
      "gorgeous": 7154,
      "asleep": 7155,
      "38": 7156,
      "42": 7157,
      "47": 7158,
      "bie": 7159,
      "dys": 7160,
      "dawn": 7161,
      "fest": 7162,
      "gments": 7163,
      "gases": 7164,
      "mich": 7165,
      "nie": 7166,
      "ngos": 7167,
      "ov": 7168,
      "pad": 7169,
      "rope": 7170,
      "yards": 7171,
      "thresh": 7172,
      "resolve": 7173,
      "reactions": 7174,
      "oust": 7175,
      "apore": 7176,
      "itate": 7177,
      "oma": 7178,
      "vember": 7179,
      "hai": 7180,
      "forgot": 7181,
      "trace": 7182,
      "gore": 7183,
      "deals": 7184,
      "demos": 7185,
      "motors": 7186,
      "confron": 7187,
      "expos": 7188,
      "artwork": 7189,
      "pless": 7190,
      "shred": 7191,
      "shang": 7192,
      "proven": 7193,
      "november": 7194,
      "gran": 7195,
      "civic": 7196,
      "tier": 7197,
      "yourselves": 7198,
      "ansas": 7199,
      "cla": 7200,
      "formal": 7201,
      "lottery": 7202,
      "genoc": 7203,
      "crew": 7204,
      "manif": 7205,
      "uctive": 7206,
      "courses": 7207,
      "ministry": 7208,
      "server": 7209,
      "singapore": 7210,
      "cellular": 7211,
      "patents": 7212,
      "generating": 7213,
      "pointed": 7214,
      "greg": 7215,
      "graphs": 7216,
      "banking": 7217,
      "connects": 7218,
      "educate": 7219,
      "household": 7220,
      "ashed": 7221,
      "kills": 7222,
      "audiences": 7223,
      "demographic": 7224,
      "stein": 7225,
      "stead": 7226,
      "stephen": 7227,
      "cuts": 7228,
      "bench": 7229,
      "asteroid": 7230,
      "measures": 7231,
      "failures": 7232,
      "purposes": 7233,
      "supermarket": 7234,
      "traditions": 7235,
      "survived": 7236,
      "approaches": 7237,
      "truths": 7238,
      "panic": 7239,
      "similarly": 7240,
      "rape": 7241,
      "microph": 7242,
      "reports": 7243,
      "bacterial": 7244,
      "package": 7245,
      "spray": 7246,
      "recipe": 7247,
      "achievement": 7248,
      "graduated": 7249,
      "sadly": 7250,
      "golden": 7251,
      "placing": 7252,
      "cambod": 7253,
      "mysterious": 7254,
      "racing": 7255,
      "symbols": 7256,
      "satellites": 7257,
      "watson": 7258,
      "strategic": 7259,
      "grocer": 7260,
      "thirty": 7261,
      "dictator": 7262,
      "barriers": 7263,
      "constraints": 7264,
      "clusters": 7265,
      "condoms": 7266,
      "trigger": 7267,
      "physi": 7268,
      "nutrients": 7269,
      "lifespan": 7270,
      "pyramid": 7271,
      "wandering": 7272,
      "unbelievable": 7273,
      "mainstream": 7274,
      "indonesia": 7275,
      "batt": 7276,
      "dun": 7277,
      "file": 7278,
      "figh": 7279,
      "hos": 7280,
      "hunt": 7281,
      "hilar": 7282,
      "jay": 7283,
      "ored": 7284,
      "ril": 7285,
      "rick": 7286,
      "sized": 7287,
      "santa": 7288,
      "tiger": 7289,
      "tables": 7290,
      "ux": 7291,
      "ini": 7292,
      "rethink": 7293,
      "reinvent": 7294,
      "attem": 7295,
      "towel": 7296,
      "tomato": 7297,
      "encoun": 7298,
      "align": 7299,
      "stamp": 7300,
      "icting": 7301,
      "accent": 7302,
      "soap": 7303,
      "melt": 7304,
      "pride": 7305,
      "peare": 7306,
      "amine": 7307,
      "aded": 7308,
      "sake": 7309,
      "rescu": 7310,
      "endangered": 7311,
      "spi": 7312,
      "applying": 7313,
      "clue": 7314,
      "boots": 7315,
      "shepher": 7316,
      "pockets": 7317,
      "epis": 7318,
      "drought": 7319,
      "intervent": 7320,
      "reader": 7321,
      "readers": 7322,
      "offering": 7323,
      "wrapped": 7324,
      "miner": 7325,
      "tedtalks": 7326,
      "foundations": 7327,
      "planned": 7328,
      "trail": 7329,
      "trajec": 7330,
      "1960": 7331,
      "particle": 7332,
      "culti": 7333,
      "lang": 7334,
      "consult": 7335,
      "glor": 7336,
      "burgh": 7337,
      "propag": 7338,
      "bond": 7339,
      "seventh": 7340,
      "drew": 7341,
      "fireflies": 7342,
      "analogy": 7343,
      "prints": 7344,
      "spreads": 7345,
      "aneous": 7346,
      "zealand": 7347,
      "riding": 7348,
      "affecting": 7349,
      "sale": 7350,
      "included": 7351,
      "representative": 7352,
      "chron": 7353,
      "pairs": 7354,
      "blindness": 7355,
      "calculations": 7356,
      "nelson": 7357,
      "nuts": 7358,
      "teenage": 7359,
      "teenager": 7360,
      "gained": 7361,
      "ography": 7362,
      "interviews": 7363,
      "immense": 7364,
      "customer": 7365,
      "mastery": 7366,
      "tana": 7367,
      "exercis": 7368,
      "estimates": 7369,
      "assemble": 7370,
      "ecological": 7371,
      "installed": 7372,
      "elementary": 7373,
      "rosling": 7374,
      "officials": 7375,
      "shocked": 7376,
      "pigs": 7377,
      "institutional": 7378,
      "magnific": 7379,
      "dutch": 7380,
      "mimic": 7381,
      "embarrassing": 7382,
      "whistle": 7383,
      "carolina": 7384,
      "breeding": 7385,
      "abandoned": 7386,
      "neutral": 7387,
      "explosion": 7388,
      "bronx": 7389,
      "recommend": 7390,
      "glimpse": 7391,
      "pandemic": 7392,
      "hormones": 7393,
      "ultrasound": 7394,
      "shakespeare": 7395,
      "genuine": 7396,
      "controversial": 7397,
      "shanghai": 7398,
      "interventions": 7399,
      "bis": 7400,
      "dos": 7401,
      "dian": 7402,
      "hong": 7403,
      "iop": 7404,
      "ku": 7405,
      "kir": 7406,
      "kim": 7407,
      "lak": 7408,
      "sab": 7409,
      "scaf": 7410,
      "yn": 7411,
      "inmates": 7412,
      "ano": 7413,
      "toast": 7414,
      "enna": 7415,
      "enjo": 7416,
      "ora": 7417,
      "asters": 7418,
      "beth": 7419,
      "acknowled": 7420,
      "sole": 7421,
      "chess": 7422,
      "wires": 7423,
      "geo": 7424,
      "oped": 7425,
      "defic": 7426,
      "pear": 7427,
      "iff": 7428,
      "loving": 7429,
      "worms": 7430,
      "fraction": 7431,
      "congest": 7432,
      "odor": 7433,
      "shots": 7434,
      "aint": 7435,
      "agents": 7436,
      "illance": 7437,
      "suits": 7438,
      "donald": 7439,
      "rog": 7440,
      "cratic": 7441,
      "portion": 7442,
      "enses": 7443,
      "counting": 7444,
      "obtain": 7445,
      "obese": 7446,
      "interpre": 7447,
      "marvel": 7448,
      "prescri": 7449,
      "turk": 7450,
      "flavor": 7451,
      "tedtalk": 7452,
      "transmission": 7453,
      "visually": 7454,
      "2012": 7455,
      "capabilities": 7456,
      "1980s": 7457,
      "autistic": 7458,
      "topics": 7459,
      "ski": 7460,
      "subur": 7461,
      "charged": 7462,
      "vocal": 7463,
      "microb": 7464,
      "momentum": 7465,
      "2002": 7466,
      "cheat": 7467,
      "stopping": 7468,
      "sixth": 7469,
      "parenting": 7470,
      "burger": 7471,
      "beautifully": 7472,
      "collectively": 7473,
      "improv": 7474,
      "invested": 7475,
      "introver": 7476,
      "surviv": 7477,
      "deadly": 7478,
      "statistic": 7479,
      "venture": 7480,
      "forestation": 7481,
      "salt": 7482,
      "juice": 7483,
      "folded": 7484,
      "mechanics": 7485,
      "encycl": 7486,
      "locations": 7487,
      "masters": 7488,
      "sweep": 7489,
      "bullet": 7490,
      "homo": 7491,
      "strike": 7492,
      "scanning": 7493,
      "deserve": 7494,
      "reflection": 7495,
      "discovering": 7496,
      "integration": 7497,
      "physicians": 7498,
      "classrooms": 7499,
      "passage": 7500,
      "cooperate": 7501,
      "mike": 7502,
      "incentive": 7503,
      "frequently": 7504,
      "telescopes": 7505,
      "destiny": 7506,
      "autonomy": 7507,
      "simplest": 7508,
      "candidates": 7509,
      "constitution": 7510,
      "knife": 7511,
      "desperately": 7512,
      "promised": 7513,
      "reconci": 7514,
      "recession": 7515,
      "abraham": 7516,
      "mycelium": 7517,
      "bend": 7518,
      "cad": 7519,
      "fate": 7520,
      "gur": 7521,
      "hors": 7522,
      "jung": 7523,
      "kr": 7524,
      "mild": 7525,
      "pum": 7526,
      "rh": 7527,
      "ss": 7528,
      "tide": 7529,
      "yr": 7530,
      "rewards": 7531,
      "osity": 7532,
      "enh": 7533,
      "enabled": 7534,
      "itzer": 7535,
      "itudes": 7536,
      "esign": 7537,
      "asian": 7538,
      "hawa": 7539,
      "wil": 7540,
      "neys": 7541,
      "unhappy": 7542,
      "impression": 7543,
      "adopt": 7544,
      "advoc": 7545,
      "convey": 7546,
      "tee": 7547,
      "uls": 7548,
      "ody": 7549,
      "cage": 7550,
      "plates": 7551,
      "rian": 7552,
      "upset": 7553,
      "nology": 7554,
      "sail": 7555,
      "tips": 7556,
      "redesign": 7557,
      "thane": 7558,
      "bleed": 7559,
      "00s": 7560,
      "kings": 7561,
      "boost": 7562,
      "criter": 7563,
      "stranger": 7564,
      "guil": 7565,
      "goodbye": 7566,
      "interrup": 7567,
      "downtown": 7568,
      "simulation": 7569,
      "handed": 7570,
      "airplanes": 7571,
      "gathered": 7572,
      "shaking": 7573,
      "capt": 7574,
      "joint": 7575,
      "gesture": 7576,
      "reasonable": 7577,
      "signature": 7578,
      "temple": 7579,
      "explicit": 7580,
      "electrodes": 7581,
      "freezing": 7582,
      "stepped": 7583,
      "damaged": 7584,
      "namely": 7585,
      "planted": 7586,
      "landscapes": 7587,
      "flows": 7588,
      "websites": 7589,
      "july": 7590,
      "medication": 7591,
      "challenged": 7592,
      "transforming": 7593,
      "woods": 7594,
      "primitive": 7595,
      "cliff": 7596,
      "believing": 7597,
      "cruel": 7598,
      "brands": 7599,
      "sexuality": 7600,
      "smells": 7601,
      "injured": 7602,
      "historically": 7603,
      "surveillance": 7604,
      "gentleman": 7605,
      "determines": 7606,
      "extinction": 7607,
      "manipulate": 7608,
      "concentration": 7609,
      "simpler": 7610,
      "ambitious": 7611,
      "grasp": 7612,
      "disturbing": 7613,
      "hallucinations": 7614,
      "aggressive": 7615,
      "replicate": 7616,
      "intriguing": 7617,
      "joseph": 7618,
      "legislation": 7619,
      "lungs": 7620,
      "joshua": 7621,
      "catholic": 7622,
      "expansion": 7623,
      "simultaneously": 7624,
      "cylinder": 7625,
      "dopamine": 7626,
      "genocide": 7627,
      "46": 7628,
      "58": 7629,
      "avi": 7630,
      "dating": 7631,
      "fuse": 7632,
      "gill": 7633,
      "hated": 7634,
      "jane": 7635,
      "kit": 7636,
      "lion": 7637,
      "nar": 7638,
      "tid": 7639,
      "treas": 7640,
      "ule": 7641,
      "vag": 7642,
      "vary": 7643,
      "zim": 7644,
      "informed": 7645,
      "theories": 7646,
      "recall": 7647,
      "replaced": 7648,
      "ati": 7649,
      "atr": 7650,
      "erg": 7651,
      "erness": 7652,
      "enem": 7653,
      "alan": 7654,
      "album": 7655,
      "ingu": 7656,
      "apples": 7657,
      "itating": 7658,
      "orth": 7659,
      "ardo": 7660,
      "leverage": 7661,
      "lexic": 7662,
      "staring": 7663,
      "stake": 7664,
      "semin": 7665,
      "bean": 7666,
      "acre": 7667,
      "acqui": 7668,
      "acknowledge": 7669,
      "quate": 7670,
      "entry": 7671,
      "gel": 7672,
      "kevin": 7673,
      "neum": 7674,
      "prose": 7675,
      "pel": 7676,
      "immers": 7677,
      "amen": 7678,
      "actively": 7679,
      "artic": 7680,
      "gross": 7681,
      "workforce": 7682,
      "newton": 7683,
      "clues": 7684,
      "phal": 7685,
      "talents": 7686,
      "cracy": 7687,
      "disability": 7688,
      "straw": 7689,
      "prevention": 7690,
      "realm": 7691,
      "carries": 7692,
      "findings": 7693,
      "faction": 7694,
      "builds": 7695,
      "helpless": 7696,
      "matt": 7697,
      "20s": 7698,
      "nerves": 7699,
      "heading": 7700,
      "girlfriend": 7701,
      "figur": 7702,
      "badly": 7703,
      "answering": 7704,
      "ibm": 7705,
      "millimeter": 7706,
      "appeal": 7707,
      "deepest": 7708,
      "violin": 7709,
      "balls": 7710,
      "investments": 7711,
      "approved": 7712,
      "intrins": 7713,
      "winners": 7714,
      "penn": 7715,
      "filmmaker": 7716,
      "camps": 7717,
      "bills": 7718,
      "astronaut": 7719,
      "suggestion": 7720,
      "nano": 7721,
      "tracks": 7722,
      "pollut": 7723,
      "thesia": 7724,
      "authorities": 7725,
      "participation": 7726,
      "suspic": 7727,
      "bulb": 7728,
      "crimination": 7729,
      "raises": 7730,
      "detection": 7731,
      "remarkably": 7732,
      "appearance": 7733,
      "remitt": 7734,
      "courageous": 7735,
      "continuous": 7736,
      "integrate": 7737,
      "contribution": 7738,
      "interviewed": 7739,
      "physicists": 7740,
      "competing": 7741,
      "immort": 7742,
      "correctly": 7743,
      "tumors": 7744,
      "civilizations": 7745,
      "proposal": 7746,
      "murder": 7747,
      "storage": 7748,
      "channels": 7749,
      "vacu": 7750,
      "limitations": 7751,
      "conducted": 7752,
      "jumped": 7753,
      "extended": 7754,
      "bathroom": 7755,
      "gallery": 7756,
      "encouraging": 7757,
      "recycled": 7758,
      "bombsight": 7759,
      "beetles": 7760,
      "pursue": 7761,
      "aesthetic": 7762,
      "minority": 7763,
      "veterans": 7764,
      "stunning": 7765,
      "luxury": 7766,
      "tasmanian": 7767,
      "helicopter": 7768,
      "squee": 7769,
      "pigeon": 7770,
      "rehabilitation": 7771,
      "altitude": 7772,
      "labeled": 7773,
      "qaeda": 7774,
      "detroit": 7775,
      "threshold": 7776,
      "manifest": 7777,
      "magnificent": 7778,
      "criteria": 7779,
      "guilty": 7780,
      "athe": 7781,
      "awe": 7782,
      "bj": 7783,
      "dd": 7784,
      "dens": 7785,
      "fancy": 7786,
      "gaps": 7787,
      "jill": 7788,
      "jones": 7789,
      "kite": 7790,
      "mun": 7791,
      "sne": 7792,
      "sna": 7793,
      "wan": 7794,
      "wins": 7795,
      "yan": 7796,
      "inary": 7797,
      "anth": 7798,
      "revel": 7799,
      "reclaim": 7800,
      "toile": 7801,
      "enzy": 7802,
      "alli": 7803,
      "edi": 7804,
      "lever": 7805,
      "oton": 7806,
      "beef": 7807,
      "ller": 7808,
      "ched": 7809,
      "methane": 7810,
      "haust": 7811,
      "outrage": 7812,
      "pra": 7813,
      "ambul": 7814,
      "canad": 7815,
      "frames": 7816,
      "tel": 7817,
      "exhaust": 7818,
      "permission": 7819,
      "upside": 7820,
      "agos": 7821,
      "brocco": 7822,
      "mentally": 7823,
      "empowered": 7824,
      "roach": 7825,
      "disasters": 7826,
      "discrimination": 7827,
      "udi": 7828,
      "backs": 7829,
      "syring": 7830,
      "specul": 7831,
      "genomes": 7832,
      "counsel": 7833,
      "selfish": 7834,
      "offspring": 7835,
      "humanitarian": 7836,
      "montana": 7837,
      "minus": 7838,
      "systematically": 7839,
      "versions": 7840,
      "fundra": 7841,
      "biosphere": 7842,
      "gang": 7843,
      "storytell": 7844,
      "nevertheless": 7845,
      "lectures": 7846,
      "uniform": 7847,
      "caregi": 7848,
      "capability": 7849,
      "1990": 7850,
      "warri": 7851,
      "projections": 7852,
      "hardest": 7853,
      "africans": 7854,
      "passive": 7855,
      "expedition": 7856,
      "incidence": 7857,
      "legend": 7858,
      "messy": 7859,
      "prediction": 7860,
      "purple": 7861,
      "bribe": 7862,
      "extraordinarily": 7863,
      "troops": 7864,
      "ventil": 7865,
      "laden": 7866,
      "juven": 7867,
      "wooden": 7868,
      "raped": 7869,
      "judgments": 7870,
      "concerns": 7871,
      "conception": 7872,
      "texts": 7873,
      "bridges": 7874,
      "belly": 7875,
      "batteries": 7876,
      "striking": 7877,
      "strugg": 7878,
      "annual": 7879,
      "journalists": 7880,
      "fatal": 7881,
      "enjoyed": 7882,
      "assumption": 7883,
      "embracing": 7884,
      "rolls": 7885,
      "motivated": 7886,
      "worrying": 7887,
      "partnership": 7888,
      "injuries": 7889,
      "proposition": 7890,
      "tanzan": 7891,
      "voted": 7892,
      "regularly": 7893,
      "technically": 7894,
      "bowl": 7895,
      "pills": 7896,
      "succeeded": 7897,
      "grains": 7898,
      "terrified": 7899,
      "fragment": 7900,
      "sculptures": 7901,
      "minimum": 7902,
      "dolphin": 7903,
      "established": 7904,
      "frightening": 7905,
      "overwhelmed": 7906,
      "astronomers": 7907,
      "feminist": 7908,
      "hetti": 7909,
      "royal": 7910,
      "supplies": 7911,
      "lonely": 7912,
      "cotton": 7913,
      "stabili": 7914,
      "shepherd": 7915,
      "trajectory": 7916,
      "cultiv": 7917,
      "vacuum": 7918,
      "broccoli": 7919,
      "44": 7920,
      "ao": 7921,
      "adel": 7922,
      "dil": 7923,
      "hh": 7924,
      "hes": 7925,
      "lists": 7926,
      "lined": 7927,
      "mously": 7928,
      "sperm": 7929,
      "til": 7930,
      "ua": 7931,
      "yer": 7932,
      "zip": 7933,
      "zones": 7934,
      "infer": 7935,
      "anni": 7936,
      "reme": 7937,
      "reproduce": 7938,
      "apy": 7939,
      "arbit": 7940,
      "stad": 7941,
      "sew": 7942,
      "secular": 7943,
      "icial": 7944,
      "iconic": 7945,
      "acids": 7946,
      "mere": 7947,
      "lip": 7948,
      "hamed": 7949,
      "forbid": 7950,
      "wives": 7951,
      "gevity": 7952,
      "kel": 7953,
      "trap": 7954,
      "tric": 7955,
      "loose": 7956,
      "advis": 7957,
      "fru": 7958,
      "fram": 7959,
      "caves": 7960,
      "shout": 7961,
      "aghetti": 7962,
      "illusions": 7963,
      "seemingly": 7964,
      "spaghetti": 7965,
      "owners": 7966,
      "clint": 7967,
      "twins": 7968,
      "eless": 7969,
      "craw": 7970,
      "disney": 7971,
      "format": 7972,
      "blan": 7973,
      "blur": 7974,
      "blown": 7975,
      "observed": 7976,
      "uctor": 7977,
      "ipod": 7978,
      "shower": 7979,
      "marrow": 7980,
      "hired": 7981,
      "meditation": 7982,
      "systematic": 7983,
      "calm": 7984,
      "highlight": 7985,
      "understands": 7986,
      "founder": 7987,
      "viscer": 7988,
      "parks": 7989,
      "1930s": 7990,
      "contest": 7991,
      "computation": 7992,
      "computational": 7993,
      "farms": 7994,
      "connectivity": 7995,
      "regis": 7996,
      "voy": 7997,
      "cheating": 7998,
      "holders": 7999,
      "barbar": 8000,
      "programmers": 8001,
      "cube": 8002,
      "propose": 8003,
      "tribal": 8004,
      "expecting": 8005,
      "scales": 8006,
      "horr": 8007,
      "penis": 8008,
      "safely": 8009,
      "origins": 8010,
      "jeopard": 8011,
      "sands": 8012,
      "doubled": 8013,
      "activated": 8014,
      "attacked": 8015,
      "periods": 8016,
      "compassionate": 8017,
      "longevity": 8018,
      "theses": 8019,
      "authoritarian": 8020,
      "magician": 8021,
      "cosmo": 8022,
      "sufficient": 8023,
      "detector": 8024,
      "temperatures": 8025,
      "titles": 8026,
      "associate": 8027,
      "earliest": 8028,
      "protocell": 8029,
      "randomly": 8030,
      "assumed": 8031,
      "destroying": 8032,
      "narratives": 8033,
      "therapies": 8034,
      "clothing": 8035,
      "modest": 8036,
      "dominated": 8037,
      "opinions": 8038,
      "stimul": 8039,
      "substant": 8040,
      "imagining": 8041,
      "satisfaction": 8042,
      "scenes": 8043,
      "monitoring": 8044,
      "encouraged": 8045,
      "overwhelming": 8046,
      "portraits": 8047,
      "tattoo": 8048,
      "inflation": 8049,
      "philosophical": 8050,
      "initiative": 8051,
      "beetle": 8052,
      "convenient": 8053,
      "tolerance": 8054,
      "abundance": 8055,
      "improvisation": 8056,
      "administration": 8057,
      "hierarchy": 8058,
      "censor": 8059,
      "chimpanzees": 8060,
      "brooklyn": 8061,
      "palestinian": 8062,
      "traumatic": 8063,
      "microphone": 8064,
      "enemies": 8065,
      "64": 8066,
      "bc": 8067,
      "cable": 8068,
      "etr": 8069,
      "jar": 8070,
      "jun": 8071,
      "kers": 8072,
      "mans": 8073,
      "mapped": 8074,
      "mitted": 8075,
      "nast": 8076,
      "naz": 8077,
      "pap": 8078,
      "pies": 8079,
      "tangible": 8080,
      "vivid": 8081,
      "wk": 8082,
      "zler": 8083,
      "infant": 8084,
      "rey": 8085,
      "reass": 8086,
      "retain": 8087,
      "ena": 8088,
      "april": 8089,
      "itative": 8090,
      "orang": 8091,
      "orgas": 8092,
      "lewis": 8093,
      "omin": 8094,
      "ching": 8095,
      "utili": 8096,
      "heres": 8097,
      "trapped": 8098,
      "decor": 8099,
      "petr": 8100,
      "usa": 8101,
      "usha": 8102,
      "cement": 8103,
      "tering": 8104,
      "moore": 8105,
      "odi": 8106,
      "export": 8107,
      "useless": 8108,
      "plum": 8109,
      "shat": 8110,
      "shining": 8111,
      "likelihood": 8112,
      "yeast": 8113,
      "ideology": 8114,
      "spare": 8115,
      "owning": 8116,
      "apps": 8117,
      "boats": 8118,
      "sheer": 8119,
      "distor": 8120,
      "uded": 8121,
      "strings": 8122,
      "kindness": 8123,
      "prev": 8124,
      "sier": 8125,
      "realization": 8126,
      "cola": 8127,
      "colom": 8128,
      "comparing": 8129,
      "stomach": 8130,
      "stolen": 8131,
      "simon": 8132,
      "basking": 8133,
      "transit": 8134,
      "biodi": 8135,
      "nathan": 8136,
      "cares": 8137,
      "generosity": 8138,
      "relates": 8139,
      "mala": 8140,
      "delhi": 8141,
      "easiest": 8142,
      "addiction": 8143,
      "regulation": 8144,
      "italian": 8145,
      "responded": 8146,
      "hub": 8147,
      "amazed": 8148,
      "tempest": 8149,
      "dancers": 8150,
      "advances": 8151,
      "universes": 8152,
      "sensing": 8153,
      "nonviolent": 8154,
      "involving": 8155,
      "penetr": 8156,
      "cooling": 8157,
      "promising": 8158,
      "petition": 8159,
      "approaching": 8160,
      "symphony": 8161,
      "jewel": 8162,
      "favorites": 8163,
      "receiving": 8164,
      "ethiop": 8165,
      "touching": 8166,
      "liza": 8167,
      "hammad": 8168,
      "multiply": 8169,
      "fantasy": 8170,
      "client": 8171,
      "cleaning": 8172,
      "sched": 8173,
      "calculated": 8174,
      "vaccin": 8175,
      "loyal": 8176,
      "parkinson": 8177,
      "significance": 8178,
      "greek": 8179,
      "greece": 8180,
      "occurring": 8181,
      "discoveries": 8182,
      "streams": 8183,
      "assuming": 8184,
      "phenomena": 8185,
      "mutations": 8186,
      "platforms": 8187,
      "hacking": 8188,
      "1999": 8189,
      "documentary": 8190,
      "piles": 8191,
      "teszler": 8192,
      "switched": 8193,
      "pherom": 8194,
      "replacement": 8195,
      "fifty": 8196,
      "installation": 8197,
      "laptops": 8198,
      "heavi": 8199,
      "vacation": 8200,
      "metric": 8201,
      "grip": 8202,
      "ingredient": 8203,
      "consistent": 8204,
      "spinning": 8205,
      "saturn": 8206,
      "rejected": 8207,
      "alexander": 8208,
      "assignment": 8209,
      "interpretation": 8210,
      "authenticity": 8211,
      "pouring": 8212,
      "diplomacy": 8213,
      "refrigerator": 8214,
      "impressive": 8215,
      "delicious": 8216,
      "virginia": 8217,
      "sarah": 8218,
      "adopted": 8219,
      "goliath": 8220,
      "catastroph": 8221,
      "mexican": 8222,
      "abulary": 8223,
      "rescued": 8224,
      "horses": 8225,
      "toilets": 8226,
      "350": 8227,
      "98": 8228,
      "bother": 8229,
      "cows": 8230,
      "dj": 8231,
      "divid": 8232,
      "gli": 8233,
      "hug": 8234,
      "jh": 8235,
      "lav": 8236,
      "mama": 8237,
      "mpic": 8238,
      "pent": 8239,
      "ptian": 8240,
      "roles": 8241,
      "vice": 8242,
      "thals": 8243,
      "ancing": 8244,
      "reput": 8245,
      "apolog": 8246,
      "argent": 8247,
      "weg": 8248,
      "stones": 8249,
      "veil": 8250,
      "beloved": 8251,
      "acious": 8252,
      "entering": 8253,
      "lips": 8254,
      "hagen": 8255,
      "opedia": 8256,
      "unde": 8257,
      "lol": 8258,
      "logo": 8259,
      "compos": 8260,
      "maid": 8261,
      "perpet": 8262,
      "ila": 8263,
      "node": 8264,
      "workplace": 8265,
      "coat": 8266,
      "coverage": 8267,
      "spain": 8268,
      "ette": 8269,
      "overhead": 8270,
      "overseas": 8271,
      "pox": 8272,
      "counts": 8273,
      "counted": 8274,
      "managing": 8275,
      "intact": 8276,
      "irect": 8277,
      "compli": 8278,
      "corners": 8279,
      "creator": 8280,
      "helmet": 8281,
      "archive": 8282,
      "bian": 8283,
      "biol": 8284,
      "singer": 8285,
      "developers": 8286,
      "attitudes": 8287,
      "holi": 8288,
      "friendship": 8289,
      "topus": 8290,
      "supreme": 8291,
      "processed": 8292,
      "regul": 8293,
      "custo": 8294,
      "cript": 8295,
      "equations": 8296,
      "nightm": 8297,
      "octopus": 8298,
      "audi": 8299,
      "amazingly": 8300,
      "switzer": 8301,
      "follows": 8302,
      "masses": 8303,
      "shortly": 8304,
      "lingu": 8305,
      "copic": 8306,
      "copies": 8307,
      "squared": 8308,
      "paths": 8309,
      "ethic": 8310,
      "johnny": 8311,
      "christi": 8312,
      "introduction": 8313,
      "lifted": 8314,
      "sanitation": 8315,
      "infections": 8316,
      "secretary": 8317,
      "crossed": 8318,
      "nurture": 8319,
      "cision": 8320,
      "diagnost": 8321,
      "automobile": 8322,
      "tunis": 8323,
      "boundary": 8324,
      "blogs": 8325,
      "documented": 8326,
      "accuracy": 8327,
      "estimated": 8328,
      "priorit": 8329,
      "politician": 8330,
      "1984": 8331,
      "shifts": 8332,
      "egyptian": 8333,
      "obsession": 8334,
      "vocabulary": 8335,
      "thrive": 8336,
      "belongs": 8337,
      "accounting": 8338,
      "jumping": 8339,
      "pulse": 8340,
      "alike": 8341,
      "wolfram": 8342,
      "privileged": 8343,
      "saturday": 8344,
      "accomplished": 8345,
      "eliminate": 8346,
      "chromosome": 8347,
      "chromosomes": 8348,
      "stereotypes": 8349,
      "neuroscientist": 8350,
      "neanderthals": 8351,
      "elegant": 8352,
      "cathedr": 8353,
      "jellyfish": 8354,
      "confronted": 8355,
      "exposure": 8356,
      "grocery": 8357,
      "congestion": 8358,
      "encyclopedia": 8359,
      "acquired": 8360,
      "ambulance": 8361,
      "sierra": 8362,
      "switzerland": 8363,
      "96": 8364,
      "cs": 8365,
      "cine": 8366,
      "copen": 8367,
      "dare": 8368,
      "dile": 8369,
      "dumb": 8370,
      "eliza": 8371,
      "gus": 8372,
      "kal": 8373,
      "mund": 8374,
      "och": 8375,
      "oec": 8376,
      "inser": 8377,
      "rev": 8378,
      "retail": 8379,
      "reconstruct": 8380,
      "regenerate": 8381,
      "ata": 8382,
      "erotic": 8383,
      "toes": 8384,
      "alia": 8385,
      "altered": 8386,
      "orn": 8387,
      "ari": 8388,
      "stain": 8389,
      "stum": 8390,
      "vet": 8391,
      "chase": 8392,
      "melo": 8393,
      "liar": 8394,
      "lize": 8395,
      "uter": 8396,
      "heating": 8397,
      "forgive": 8398,
      "arest": 8399,
      "ghter": 8400,
      "wasted": 8401,
      "irrational": 8402,
      "depos": 8403,
      "deforestation": 8404,
      "unconscious": 8405,
      "ifer": 8406,
      "cany": 8407,
      "canvas": 8408,
      "cancers": 8409,
      "termin": 8410,
      "mold": 8411,
      "myst": 8412,
      "comic": 8413,
      "mah": 8414,
      "max": 8415,
      "excess": 8416,
      "oked": 8417,
      "graf": 8418,
      "estone": 8419,
      "redis": 8420,
      "donors": 8421,
      "clu": 8422,
      "buff": 8423,
      "bugs": 8424,
      "muhammad": 8425,
      "blink": 8426,
      "blings": 8427,
      "syria": 8428,
      "ensus": 8429,
      "fulness": 8430,
      "sip": 8431,
      "siblings": 8432,
      "obso": 8433,
      "manner": 8434,
      "intensity": 8435,
      "ials": 8436,
      "creatic": 8437,
      "tedglobal": 8438,
      "puber": 8439,
      "famously": 8440,
      "norms": 8441,
      "norweg": 8442,
      "smallest": 8443,
      "organizing": 8444,
      "publishing": 8445,
      "passions": 8446,
      "operated": 8447,
      "regulations": 8448,
      "consensus": 8449,
      "researching": 8450,
      "blocking": 8451,
      "electrons": 8452,
      "angles": 8453,
      "sexually": 8454,
      "massively": 8455,
      "oiled": 8456,
      "texture": 8457,
      "literacy": 8458,
      "practicing": 8459,
      "convicted": 8460,
      "slaugh": 8461,
      "professors": 8462,
      "producers": 8463,
      "measurements": 8464,
      "ridge": 8465,
      "trusted": 8466,
      "pancreatic": 8467,
      "cardio": 8468,
      "chronic": 8469,
      "clips": 8470,
      "squares": 8471,
      "threatening": 8472,
      "calculation": 8473,
      "calculating": 8474,
      "hopeless": 8475,
      "apartments": 8476,
      "variable": 8477,
      "welfare": 8478,
      "casual": 8479,
      "reflected": 8480,
      "occurs": 8481,
      "nico": 8482,
      "honesty": 8483,
      "cryst": 8484,
      "crypt": 8485,
      "celebrity": 8486,
      "optical": 8487,
      "preventing": 8488,
      "detected": 8489,
      "attracted": 8490,
      "voters": 8491,
      "terrorists": 8492,
      "quantities": 8493,
      "ecology": 8494,
      "stimulation": 8495,
      "knees": 8496,
      "olymp": 8497,
      "occupy": 8498,
      "isolation": 8499,
      "melting": 8500,
      "anxious": 8501,
      "observations": 8502,
      "destination": 8503,
      "elephants": 8504,
      "branches": 8505,
      "recycling": 8506,
      "elevator": 8507,
      "accomplish": 8508,
      "procedures": 8509,
      "preparation": 8510,
      "cousins": 8511,
      "adolescence": 8512,
      "pipeline": 8513,
      "thetics": 8514,
      "metabolism": 8515,
      "reporter": 8516,
      "dvd": 8517,
      "lebanon": 8518,
      "chamber": 8519,
      "trivial": 8520,
      "embodied": 8521,
      "cambodia": 8522,
      "tanzania": 8523,
      "arbitr": 8524,
      "stadium": 8525,
      "jeopardy": 8526,
      "nasty": 8527,
      "biodiversity": 8528,
      "underestim": 8529,
      "copenhagen": 8530,
      "dilem": 8531,
      "oecd": 8532,
      "130": 8533,
      "72": 8534,
      "aqu": 8535,
      "bats": 8536,
      "cc": 8537,
      "dirt": 8538,
      "jenn": 8539,
      "mask": 8540,
      "nin": 8541,
      "ores": 8542,
      "pav": 8543,
      "pix": 8544,
      "rust": 8545,
      "rum": 8546,
      "sizes": 8547,
      "von": 8548,
      "zu": 8549,
      "zes": 8550,
      "thread": 8551,
      "resem": 8552,
      "toll": 8553,
      "ised": 8554,
      "osexual": 8555,
      "enix": 8556,
      "altru": 8557,
      "itable": 8558,
      "edit": 8559,
      "lethal": 8560,
      "otion": 8561,
      "seren": 8562,
      "seats": 8563,
      "beam": 8564,
      "llo": 8565,
      "hears": 8566,
      "forcing": 8567,
      "traction": 8568,
      "deception": 8569,
      "ometer": 8570,
      "moz": 8571,
      "actic": 8572,
      "exotic": 8573,
      "exagger": 8574,
      "artif": 8575,
      "umbs": 8576,
      "proceed": 8577,
      "estate": 8578,
      "cia": 8579,
      "resur": 8580,
      "residents": 8581,
      "brane": 8582,
      "iza": 8583,
      "disrup": 8584,
      "disgust": 8585,
      "obi": 8586,
      "mann": 8587,
      "interior": 8588,
      "presum": 8589,
      "awake": 8590,
      "fles": 8591,
      "conds": 8592,
      "monster": 8593,
      "longest": 8594,
      "earning": 8595,
      "calend": 8596,
      "babwe": 8597,
      "membrane": 8598,
      "parach": 8599,
      "landing": 8600,
      "patience": 8601,
      "2030": 8602,
      "cared": 8603,
      "wonders": 8604,
      "1950s": 8605,
      "generates": 8606,
      "farther": 8607,
      "farming": 8608,
      "teaches": 8609,
      "skip": 8610,
      "lowest": 8611,
      "regain": 8612,
      "cussing": 8613,
      "phoenix": 8614,
      "bloom": 8615,
      "couch": 8616,
      "harmony": 8617,
      "metic": 8618,
      "treaty": 8619,
      "pays": 8620,
      "missions": 8621,
      "richest": 8622,
      "distingu": 8623,
      "relief": 8624,
      "communicating": 8625,
      "grades": 8626,
      "slum": 8627,
      "explores": 8628,
      "jean": 8629,
      "pathways": 8630,
      "nanop": 8631,
      "consuming": 8632,
      "consumed": 8633,
      "expressed": 8634,
      "functioning": 8635,
      "hunter": 8636,
      "lized": 8637,
      "activists": 8638,
      "primate": 8639,
      "exceptions": 8640,
      "enterprise": 8641,
      "cosmic": 8642,
      "stressed": 8643,
      "infectious": 8644,
      "collaborate": 8645,
      "argued": 8646,
      "virtue": 8647,
      "cups": 8648,
      "perspectives": 8649,
      "budgets": 8650,
      "museums": 8651,
      "scans": 8652,
      "discussions": 8653,
      "reflects": 8654,
      "atomic": 8655,
      "beaten": 8656,
      "entrepreneurial": 8657,
      "laughed": 8658,
      "mixing": 8659,
      "matched": 8660,
      "romance": 8661,
      "mutual": 8662,
      "selected": 8663,
      "blogging": 8664,
      "scarce": 8665,
      "emotionally": 8666,
      "accurately": 8667,
      "snap": 8668,
      "votes": 8669,
      "coding": 8670,
      "chains": 8671,
      "storms": 8672,
      "metals": 8673,
      "hills": 8674,
      "vegetable": 8675,
      "shifted": 8676,
      "olympic": 8677,
      "regrets": 8678,
      "mesh": 8679,
      "miracles": 8680,
      "jerusal": 8681,
      "talented": 8682,
      "memorial": 8683,
      "illustrates": 8684,
      "julia": 8685,
      "terribly": 8686,
      "metabolic": 8687,
      "anesthesia": 8688,
      "absence": 8689,
      "cigarette": 8690,
      "sylvia": 8691,
      "leonardo": 8692,
      "approximately": 8693,
      "fighters": 8694,
      "glorious": 8695,
      "enjoying": 8696,
      "zimbabwe": 8697,
      "fruits": 8698,
      "clinton": 8699,
      "visceral": 8700,
      "ushahid": 8701,
      "obsolete": 8702,
      "jerusalem": 8703,
      "97": 8704,
      "aired": 8705,
      "cass": 8706,
      "ego": 8707,
      "eigh": 8708,
      "fence": 8709,
      "gw": 8710,
      "mig": 8711,
      "oak": 8712,
      "qatar": 8713,
      "rr": 8714,
      "rant": 8715,
      "rag": 8716,
      "sms": 8717,
      "sween": 8718,
      "uma": 8719,
      "ww": 8720,
      "inational": 8721,
      "anut": 8722,
      "reforms": 8723,
      "tock": 8724,
      "envel": 8725,
      "envision": 8726,
      "orter": 8727,
      "ester": 8728,
      "arise": 8729,
      "leone": 8730,
      "leash": 8731,
      "leopard": 8732,
      "weed": 8733,
      "whip": 8734,
      "icides": 8735,
      "acoust": 8736,
      "solo": 8737,
      "sovere": 8738,
      "chin": 8739,
      "chant": 8740,
      "mead": 8741,
      "lith": 8742,
      "heter": 8743,
      "traces": 8744,
      "decent": 8745,
      "unfair": 8746,
      "petal": 8747,
      "peanut": 8748,
      "loan": 8749,
      "ura": 8750,
      "tear": 8751,
      "exquis": 8752,
      "peoples": 8753,
      "umines": 8754,
      "whoa": 8755,
      "tibet": 8756,
      "thinkers": 8757,
      "bral": 8758,
      "coin": 8759,
      "tai": 8760,
      "spons": 8761,
      "disagree": 8762,
      "blah": 8763,
      "guards": 8764,
      "tsun": 8765,
      "bery": 8766,
      "epi": 8767,
      "posters": 8768,
      "observing": 8769,
      "drunk": 8770,
      "marsh": 8771,
      "intend": 8772,
      "ireland": 8773,
      "compens": 8774,
      "mono": 8775,
      "shoulders": 8776,
      "fungi": 8777,
      "bikes": 8778,
      "biased": 8779,
      "decides": 8780,
      "rah": 8781,
      "naive": 8782,
      "lester": 8783,
      "curves": 8784,
      "venue": 8785,
      "para": 8786,
      "natives": 8787,
      "1950": 8788,
      "generative": 8789,
      "minded": 8790,
      "hoo": 8791,
      "contamin": 8792,
      "banjo": 8793,
      "expon": 8794,
      "addy": 8795,
      "reasoning": 8796,
      "publicly": 8797,
      "modeling": 8798,
      "hydr": 8799,
      "pedes": 8800,
      "hugely": 8801,
      "mustache": 8802,
      "greenland": 8803,
      "meets": 8804,
      "shoe": 8805,
      "atories": 8806,
      "textbooks": 8807,
      "intric": 8808,
      "dreamed": 8809,
      "slept": 8810,
      "closest": 8811,
      "risky": 8812,
      "explored": 8813,
      "releases": 8814,
      "bloody": 8815,
      "babylon": 8816,
      "drops": 8817,
      "jews": 8818,
      "skilled": 8819,
      "countless": 8820,
      "confess": 8821,
      "visualize": 8822,
      "visualization": 8823,
      "loses": 8824,
      "remix": 8825,
      "acceptable": 8826,
      "container": 8827,
      "contributed": 8828,
      "crowds": 8829,
      "scrap": 8830,
      "catching": 8831,
      "targeted": 8832,
      "taxes": 8833,
      "novelty": 8834,
      "mammal": 8835,
      "coded": 8836,
      "priority": 8837,
      "adaptation": 8838,
      "remotely": 8839,
      "appreciation": 8840,
      "weakness": 8841,
      "cracks": 8842,
      "negotiate": 8843,
      "binary": 8844,
      "multinational": 8845,
      "paradise": 8846,
      "concentrated": 8847,
      "shrink": 8848,
      "instruction": 8849,
      "dishes": 8850,
      "poems": 8851,
      "branch": 8852,
      "inevitably": 8853,
      "frightened": 8854,
      "staircase": 8855,
      "controversy": 8856,
      "palestine": 8857,
      "oriented": 8858,
      "parasite": 8859,
      "mammography": 8860,
      "legitimate": 8861,
      "settled": 8862,
      "philanthropy": 8863,
      "favelas": 8864,
      "diamond": 8865,
      "geometry": 8866,
      "treasure": 8867,
      "canadian": 8868,
      "orgasm": 8869,
      "biolumines": 8870,
      "christians": 8871,
      "puberty": 8872,
      "ushahidi": 8873,
      "sweeney": 8874,
      "envelope": 8875,
      "sovereign": 8876,
      "140": 8877,
      "86": 8878,
      "aar": 8879,
      "athan": 8880,
      "aunt": 8881,
      "bunk": 8882,
      "coper": 8883,
      "cattle": 8884,
      "dome": 8885,
      "fus": 8886,
      "fans": 8887,
      "fired": 8888,
      "gil": 8889,
      "jas": 8890,
      "kong": 8891,
      "kton": 8892,
      "khan": 8893,
      "lama": 8894,
      "oll": 8895,
      "rings": 8896,
      "rican": 8897,
      "tiles": 8898,
      "vable": 8899,
      "vending": 8900,
      "wides": 8901,
      "yves": 8902,
      "thail": 8903,
      "inn": 8904,
      "oured": 8905,
      "alga": 8906,
      "alleg": 8907,
      "alarm": 8908,
      "itz": 8909,
      "itar": 8910,
      "editor": 8911,
      "league": 8912,
      "stef": 8913,
      "behalf": 8914,
      "aced": 8915,
      "soc": 8916,
      "heh": 8917,
      "keley": 8918,
      "opposition": 8919,
      "nether": 8920,
      "pron": 8921,
      "unting": 8922,
      "unseen": 8923,
      "peers": 8924,
      "ading": 8925,
      "conscience": 8926,
      "contem": 8927,
      "configur": 8928,
      "teem": 8929,
      "ulting": 8930,
      "arten": 8931,
      "cav": 8932,
      "sometime": 8933,
      "rives": 8934,
      "sav": 8935,
      "endless": 8936,
      "coch": 8937,
      "spat": 8938,
      "rode": 8939,
      "roger": 8940,
      "etal": 8941,
      "centimeter": 8942,
      "discussing": 8943,
      "pute": 8944,
      "bercul": 8945,
      "berkeley": 8946,
      "pread": 8947,
      "mankind": 8948,
      "carib": 8949,
      "marin": 8950,
      "marco": 8951,
      "offs": 8952,
      "flick": 8953,
      "coln": 8954,
      "aken": 8955,
      "monday": 8956,
      "tedsters": 8957,
      "matches": 8958,
      "famine": 8959,
      "networking": 8960,
      "everest": 8961,
      "generic": 8962,
      "relatives": 8963,
      "headline": 8964,
      "projection": 8965,
      "tops": 8966,
      "submit": 8967,
      "bangl": 8968,
      "charges": 8969,
      "operates": 8970,
      "regional": 8971,
      "register": 8972,
      "rises": 8973,
      "laun": 8974,
      "vocate": 8975,
      "machin": 8976,
      "huh": 8977,
      "triple": 8978,
      "shaping": 8979,
      "innovate": 8980,
      "expectation": 8981,
      "textbook": 8982,
      "fails": 8983,
      "eats": 8984,
      "alongside": 8985,
      "sensation": 8986,
      "distances": 8987,
      "weekend": 8988,
      "stays": 8989,
      "experimenting": 8990,
      "pencil": 8991,
      "woo": 8992,
      "sends": 8993,
      "revolutions": 8994,
      "feeds": 8995,
      "exploit": 8996,
      "revolutionary": 8997,
      "tubercul": 8998,
      "emergence": 8999,
      "refuse": 9000,
      "antibodies": 9001,
      "christo": 9002,
      "stressful": 9003,
      "hoped": 9004,
      "laboratories": 9005,
      "titan": 9006,
      "surgeries": 9007,
      "presidential": 9008,
      "deserves": 9009,
      "corrupt": 9010,
      "sticky": 9011,
      "adapted": 9012,
      "automatic": 9013,
      "lincoln": 9014,
      "mutation": 9015,
      "analyzed": 9016,
      "pilots": 9017,
      "castle": 9018,
      "accepting": 9019,
      "shelves": 9020,
      "demonstrated": 9021,
      "geography": 9022,
      "somalia": 9023,
      "browser": 9024,
      "intimacy": 9025,
      "julian": 9026,
      "jonathan": 9027,
      "promises": 9028,
      "philosophers": 9029,
      "rubber": 9030,
      "deployed": 9031,
      "clarity": 9032,
      "compounds": 9033,
      "abundant": 9034,
      "oyster": 9035,
      "cabine": 9036,
      "tropical": 9037,
      "inventor": 9038,
      "invasive": 9039,
      "defeat": 9040,
      "statistical": 9041,
      "recruit": 9042,
      "simplif": 9043,
      "brutal": 9044,
      "stigma": 9045,
      "theoretical": 9046,
      "opolitan": 9047,
      "steady": 9048,
      "minerals": 9049,
      "suspicious": 9050,
      "remittances": 9051,
      "warrior": 9052,
      "ethiopia": 9053,
      "elizabeth": 9054,
      "widespread": 9055,
      "thailand": 9056,
      "netherlands": 9057,
      "banglades": 9058,
      "tuberculosis": 9059,
      "34": 9060,
      "77": 9061,
      "aj": 9062,
      "bund": 9063,
      "cke": 9064,
      "cort": 9065,
      "eera": 9066,
      "gical": 9067,
      "hc": 9068,
      "jur": 9069,
      "jamin": 9070,
      "kh": 9071,
      "lam": 9072,
      "mph": 9073,
      "nons": 9074,
      "ptom": 9075,
      "pier": 9076,
      "picks": 9077,
      "plied": 9078,
      "tink": 9079,
      "inity": 9080,
      "incar": 9081,
      "inction": 9082,
      "inburgh": 9083,
      "restr": 9084,
      "rection": 9085,
      "tokyo": 9086,
      "oso": 9087,
      "orph": 9088,
      "edinburgh": 9089,
      "lemon": 9090,
      "omag": 9091,
      "seaw": 9092,
      "sevent": 9093,
      "icy": 9094,
      "lli": 9095,
      "chi": 9096,
      "lib": 9097,
      "ironic": 9098,
      "dem": 9099,
      "prope": 9100,
      "adul": 9101,
      "advocate": 9102,
      "ulu": 9103,
      "acted": 9104,
      "composition": 9105,
      "igen": 9106,
      "proli": 9107,
      "saudi": 9108,
      "illumin": 9109,
      "whoever": 9110,
      "iva": 9111,
      "evapor": 9112,
      "pleased": 9113,
      "sput": 9114,
      "owns": 9115,
      "phia": 9116,
      "phthal": 9117,
      "itty": 9118,
      "overnight": 9119,
      "iceberg": 9120,
      "displays": 9121,
      "lett": 9122,
      "siber": 9123,
      "carneg": 9124,
      "uctu": 9125,
      "fluctu": 9126,
      "timing": 9127,
      "versary": 9128,
      "serves": 9129,
      "powerpoint": 9130,
      "transis": 9131,
      "examine": 9132,
      "nair": 9133,
      "kidding": 9134,
      "venice": 9135,
      "trait": 9136,
      "trauma": 9137,
      "visiting": 9138,
      "cyn": 9139,
      "1900": 9140,
      "greed": 9141,
      "compute": 9142,
      "valve": 9143,
      "spacecraft": 9144,
      "pops": 9145,
      "charities": 9146,
      "listed": 9147,
      "educating": 9148,
      "grammar": 9149,
      "legally": 9150,
      "scientifically": 9151,
      "volcano": 9152,
      "couples": 9153,
      "filmed": 9154,
      "freak": 9155,
      "kenned": 9156,
      "swing": 9157,
      "stealing": 9158,
      "mustard": 9159,
      "appearing": 9160,
      "jordan": 9161,
      "distinction": 9162,
      "planting": 9163,
      "chemist": 9164,
      "copper": 9165,
      "copying": 9166,
      "18th": 9167,
      "tickets": 9168,
      "slower": 9169,
      "slope": 9170,
      "mites": 9171,
      "approached": 9172,
      "cameron": 9173,
      "symptom": 9174,
      "critically": 9175,
      "fairness": 9176,
      "salary": 9177,
      "beside": 9178,
      "ethics": 9179,
      "philadel": 9180,
      "starbucks": 9181,
      "refused": 9182,
      "subjective": 9183,
      "primates": 9184,
      "conceptual": 9185,
      "screening": 9186,
      "improvements": 9187,
      "participating": 9188,
      "loads": 9189,
      "collaborator": 9190,
      "semi": 9191,
      "strikes": 9192,
      "continuously": 9193,
      "halls": 9194,
      "neglect": 9195,
      "protocol": 9196,
      "reflective": 9197,
      "integrity": 9198,
      "graduates": 9199,
      "contained": 9200,
      "celebrated": 9201,
[...]
